<unk>
<s>
</s>
<pad>
<0x00>
<0x01>
<0x02>
<0x03>
<0x04>
<0x05>
<0x06>
<0x07>
<0x08>
<0x09>
<0x0A>
<0x0B>
<0x0C>
<0x0D>
<0x0E>
<0x0F>
<0x10>
<0x11>
<0x12>
<0x13>
<0x14>
<0x15>
<0x16>
<0x17>
<0x18>
<0x19>
<0x1A>
<0x1B>
<0x1C>
<0x1D>
<0x1E>
<0x1F>
<0x20>
<0x21>
<0x22>
<0x23>
<0x24>
<0x25>
<0x26>
<0x27>
<0x28>
<0x29>
<0x2A>
<0x2B>
<0x2C>
<0x2D>
<0x2E>
<0x2F>
<0x30>
<0x31>
<0x32>
<0x33>
<0x34>
<0x35>
<0x36>
<0x37>
<0x38>
<0x39>
<0x3A>
<0x3B>
<0x3C>
<0x3D>
<0x3E>
<0x3F>
<0x40>
<0x41>
<0x42>
<0x43>
<0x44>
<0x45>
<0x46>
<0x47>
<0x48>
<0x49>
<0x4A>
<0x4B>
<0x4C>
<0x4D>
<0x4E>
<0x4F>
<0x50>
<0x51>
<0x52>
<0x53>
<0x54>
<0x55>
<0x56>
<0x57>
<0x58>
<0x59>
<0x5A>
<0x5B>
<0x5C>
<0x5D>
<0x5E>
<0x5F>
<0x60>
<0x61>
<0x62>
<0x63>
<0x64>
<0x65>
<0x66>
<0x67>
<0x68>
<0x69>
<0x6A>
<0x6B>
<0x6C>
<0x6D>
<0x6E>
<0x6F>
<0x70>
<0x71>
<0x72>
<0x73>
<0x74>
<0x75>
<0x76>
<0x77>
<0x78>
<0x79>
<0x7A>
<0x7B>
<0x7C>
<0x7D>
<0x7E>
<0x7F>
<0x80>
<0x81>
<0x82>
<0x83>
<0x84>
<0x85>
<0x86>
<0x87>
<0x88>
<0x89>
<0x8A>
<0x8B>
<0x8C>
<0x8D>
<0x8E>
<0x8F>
<0x90>
<0x91>
<0x92>
<0x93>
<0x94>
<0x95>
<0x96>
<0x97>
<0x98>
<0x99>
<0x9A>
<0x9B>
<0x9C>
<0x9D>
<0x9E>
<0x9F>
<0xA0>
<0xA1>
<0xA2>
<0xA3>
<0xA4>
<0xA5>
<0xA6>
<0xA7>
<0xA8>
<0xA9>
<0xAA>
<0xAB>
<0xAC>
<0xAD>
<0xAE>
<0xAF>
<0xB0>
<0xB1>
<0xB2>
<0xB3>
<0xB4>
<0xB5>
<0xB6>
<0xB7>
<0xB8>
<0xB9>
<0xBA>
<0xBB>
<0xBC>
<0xBD>
<0xBE>
<0xBF>
<0xC0>
<0xC1>
<0xC2>
<0xC3>
<0xC4>
<0xC5>
<0xC6>
<0xC7>
<0xC8>
<0xC9>
<0xCA>
<0xCB>
<0xCC>
<0xCD>
<0xCE>
<0xCF>
<0xD0>
<0xD1>
<0xD2>
<0xD3>
<0xD4>
<0xD5>
<0xD6>
<0xD7>
<0xD8>
<0xD9>
<0xDA>
<0xDB>
<0xDC>
<0xDD>
<0xDE>
<0xDF>
<0xE0>
<0xE1>
<0xE2>
<0xE3>
<0xE4>
<0xE5>
<0xE6>
<0xE7>
<0xE8>
<0xE9>
<0xEA>
<0xEB>
<0xEC>
<0xED>
<0xEE>
<0xEF>
<0xF0>
<0xF1>
<0xF2>
<0xF3>
<0xF4>
<0xF5>
<0xF6>
<0xF7>
<0xF8>
<0xF9>
<0xFA>
<0xFB>
<0xFC>
<0xFD>
<0xFE>
<0xFF>
▁
,
▁the
.
▁of
1
s
▁and
0
▁to
2
▁in
▁a
-
▁(
▁is
9
)
3
:
5
4
▁for
▁that
8
6
'
▁The
▁with
▁-
7
▁on
▁was
▁I
▁as
▁by
▁it
▁be
▁are
/
_
▁from
▁at
t
▁you
▁this
▁an
▁or
▁"
▁not
▁have
ing
"
d
▁can
▁In
▁were
▁which
▁A
(
n
ed
a
▁$
e
’
;
▁but
).
▁has
?
▁we
▁one
▁his
▁[
▁also
x
▁\
▁all
m
▁=
▁will
▁he
▁User
y
),
$
▁their
\
i
{
▁It
▁more
▁This
▁your
%
▁they
▁if
er
▁other
▁▁▁▁
▁time
ly
in
▁been
}
▁had
▁would
▁two
▁first
▁there
S
A
]
▁so
▁when
▁about
▁than
▁only
r
▁S
▁who
▁into
▁its
▁do
▁C
▁some
▁He
▁out
▁use
▁–
=
▁used
b
▁between
▁my
k
▁up
▁no
C
c
g
▁using
th
▁such
p
▁B
▁▁▁▁▁
al
▁then
▁where
▁after
▁these
▁any
▁may
▁We
▁P
▁over
▁like
▁what
▁T
▁new
f
o
re
▁her
▁“
D
▁*
▁data
!
B
–
▁M
▁our
▁well
▁most
▁them
▁work
es
▁&
▁For
▁>
▁R
▁just
▁could
+
▁If
▁same
▁each
▁D
P
▁how
▁E
▁different
▁number
▁both
▁should
▁get
].
▁G
I
or
T
▁years
▁through
▁F
▁L
▁|
▁people
▁system
▁N
▁study
▁+
^
E
▁because
▁me
▁i
R
▁al
▁many
▁during
M
▁As
▁p
F
▁need
▁way
▁K
▁H
to
▁being
▁You
▁et
▁very
▁under
▁set
▁high
h
[
▁three
▁de
▁re
z
▁make
▁Answer
▁she
▁$\
N
▁while
▁||
u
▁To
▁part
▁found
l
▁case
ve
▁▁▁▁▁▁▁▁
▁see
▁New
▁before
▁U
L
▁made
▁model
▁@
▁even
▁group
v
▁those
X
G
▁know
com
▁results
on
▁However
H
K
▁non
en
▁now
▁does
▁V
▁There
▁following
▁▁▁▁▁▁▁▁▁▁▁▁▁▁▁▁
▁much
▁On
▁don
▁patients
▁So
▁him
...
▁function
▁second
▁O
”
▁question
▁am
▁year
▁including
▁x
▁want
▁state
▁here
▁information
▁still
▁back
▁did
▁n
man
▁since
▁based
▁good
▁said
>
▁J
▁point
frac
▁example
▁right
id
▁find
▁think
▁Question
▁But
▁order
▁'
▁show
▁long
V
://
▁without
▁cells
the
▁known
▁problem
W
▁#
▁X
ers
ic
an
▁end
▁<
▁within
▁take
▁W
▁m
▁value
j
▁life
ll
▁given
▁University
▁help
▁line
▁against
▁name
▁due
*
▁c
_{
▁process
▁analysis
w
able
▁area
▁small
▁They
▁And
▁What
▁form
}{
▁control
▁level
▁around
▁might
▁large
and
▁No
▁She
▁un
▁single
▁▁▁▁▁▁▁▁▁▁▁▁
▁American
▁water
us
▁possible
▁change
▁f
▁After
▁When
▁All
▁last
▁best
▁another
▁several
▁down
▁power
▁United
▁important
▁At
▁answer
▁day
▁own
|
▁later
▁world
▁per
▁May
▁These
▁family
▁research
▁team
▁/
O
is
▁place
▁field
le
▁must
▁result
▁method
▁go
▁e
▁every
",
▁{
st
▁off
▁test
▁type
▁post
Y
▁four
▁local
▁us
▁low
▁current
▁▁▁▁▁▁▁▁▁
▁above
▁How
ity
▁An
▁better
▁until
▁called
▁support
▁series
▁higher
▁studies
The
][
▁school
▁effect
▁Re
▁b
."
▁public
▁cell
▁total
▁game
▁present
▁development
▁k
▁—
▁space
▁g
▁home
ation
J
▁similar
▁shown
▁less
▁mean
▁age
▁main
end
▁something
▁few
up
▁One
▁treatment
▁available
▁left
▁general
▁energy
▁John
▁−
▁early
▁file
▁say
▁significant
▁size
▁That
▁film
="
Z
);
▁National
".
▁too
▁season
▁rate
▁World
▁often
▁really
▁include
▁St
▁code
ist
▁provide
▁July
▁side
▁By
▁further
▁able
▁population
▁values
▁health
no
▁States
▁June
as
ton
▁class
▁Figure
▁March
▁children
ion
`
▁became
▁means
▁d
▁among
▁solution
▁Z
▁role
▁open
▁human
el
▁least
▁again
▁School
q
▁real
▁t
▁free
▁won
▁My
▁along
at
▁site
▁h
▁days
▁user
▁next
ian
▁run
▁having
▁April
▁students
▁August
}\
▁full
▁co
▁performance
▁January
de
▁September
▁v
▁$$
▁sub
▁either
▁addition
▁version
▁increase
U
▁specific
▁book
▁service
▁pre
▁compared
▁working
▁October
▁company
▁South
▁`
▁associated
▁times
],
▁why
▁give
▁range
▁various
▁always
▁going
▁lower
it
▁expression
▁points
um
▁fact
▁With
$.
▁levels
▁approach
▁design
ia
&
▁look
▁reported
Q
▁included
▁considered
▁groups
▁cases
▁great
ar
▁common
▁period
co
▁paper
▁potential
▁play
ness
▁changes
▁effects
▁December
▁government
▁State
▁related
▁however
▁city
{\
▁conditions
▁structure
▁r
▁start
▁women
▁November
▁things
▁sure
▁•
▁short
▁Q
▁original
▁list
▁never
▁risk
▁shows
▁network
▁major
▁Y
▁doesn
▁increased
based
▁whether
right
▁performed
▁social
▁already
▁light
▁though
pi
▁top
▁hand
▁production
▁body
▁works
<
▁species
▁observed
▁read
▁terms
age
▁York
ne
▁His
▁standard
▁final
▁become
▁key
▁described
▁care
▁program
)$
▁activity
▁War
.”
▁done
na
▁English
▁‘
▁Do
▁seen
▁old
▁systems
▁February
▁From
▁across
▁response
▁course
son
▁City
▁via
}$
▁come
▁little
▁De
▁County
▁released
ism
ry
▁region
ge
▁average
▁below
▁community
▁put
▁album
▁surface
▁history
▁Then
▁five
▁music
left
—
▁business
ine
▁far
▁positive
▁members
▁received
▁particular
▁add
▁issue
▁Al
▁played
▁image
▁together
▁distribution
▁making
▁position
▁required
▁models
▁self
▁located
▁showed
▁US
▁https
▁Co
▁obtained
▁third
▁rather
▁North
▁took
▁try
▁La
▁enough
▁▁▁▁▁▁▁▁▁▁▁▁▁
▁source
▁multiple
▁error
▁disease
▁understand
▁lot
ie
▁person
▁difference
▁previous
▁term
▁Since
▁access
▁country
▁create
▁near
▁Here
▁II
ch
▁seems
▁actually
▁experience
▁▁▁▁▁▁▁
▁Let
▁future
▁quality
▁features
▁project
▁services
▁former
▁training
time
▁member
line
▁death
ate
▁respectively
▁return
▁man
$,
▁cannot
born
▁section
▁Can
ized
ant
▁likely
land
ma
▁temperature
▁complex
▁y
▁instead
ment
▁First
▁protein
▁got
▁building
▁built
▁true
▁close
int
un
▁anti
te
▁methods
▁months
▁Table
ive
ley
…
▁j
▁law
▁lead
▁British
▁factors
▁...
▁developed
▁added
▁provided
▁band
▁created
▁head
▁product
▁defined
▁simple
▁Is
▁others
ization
▁content
▁Some
▁held
▁significantly
▁according
▁language
▁published
▁individual
▁action
▁once
▁normal
rs
▁growth
▁While
▁West
▁God
▁learning
▁let
org
▁taken
▁page
▁written
▁event
me
▁makes
▁thing
▁men
▁away
▁air
▁International
▁▁▁▁▁▁
▁sample
▁idea
▁areas
ally
▁million
▁career
▁application
▁Now
out
▁came
@
▁started
▁began
▁cancer
▁etc
▁problems
of
▁mass
am
▁cost
mathbb
nd
one
▁call
(\
by
▁Our
▁factor
▁Fig
▁keep
▁video
▁thus
ling
▁probably
▁hard
▁events
▁Also
▁says
▁named
il
▁San
▁half
▁amount
▁whole
▁usually
▁live
▁consider
▁trying
▁bit
▁states
▁clear
et
▁education
▁http
▁reason
▁management
▁complete
é
▁knowledge
▁phase
▁multi
▁national
ary
▁account
▁certain
▁proposed
▁special
▁loss
▁functions
▁check
▁needs
▁theory
ro
▁material
▁thought
▁Dr
▁online
▁additional
▁war
ra
▁length
ous
▁market
▁correct
▁Or
▁past
▁High
▁text
▁During
▁College
▁sense
▁car
▁record
ta
▁evidence
ir
text
°
▁player
▁natural
os
▁blood
▁song
▁especially
▁House
▁parameters
▁house
▁six
▁involved
▁Although
▁article
▁looking
▁properties
▁l
▁impact
▁doing
▁food
▁black
if
▁view
▁needed
▁almost
▁running
▁Man
▁output
▁love
▁patient
less
▁issues
▁story
▁presented
ur
▁interest
www
▁clinical
▁cause
▁Thanks
ka
year
▁report
▁software
^{
▁century
▁samples
▁condition
▁went
▁didn
▁questions
▁town
▁lines
▁physical
▁produced
▁weight
▁effective
▁itself
▁German
▁Mar
▁late
est
▁Therefore
▁strong
▁title
):
▁primary
la
▁step
▁types
▁directly
▁relationship
▁established
▁kind
ty
▁words
▁Thus
▁w
▁land
▁London
#
▁word
▁tried
▁born
▁Park
▁initial
▁French
▁yet
see
▁command
▁environment
▁PM
▁China
▁although
for
▁League
▁station
▁follow
▁upon
▁countries
▁follows
sum
▁led
▁River
▁recent
▁character
▁taking
da
▁stage
im
▁∈
▁style
▁followed
▁degree
per
▁someone
▁products
▁allow
▁review
▁Of
▁practice
▁currently
set
▁pressure
▁week
ca
▁provides
▁target
▁District
▁flow
▁media
▁therefore
▁negative
ad
▁games
▁independent
▁force
▁hours
▁expected
▁link
▁pm
▁active
▁designed
▁matrix
▁quite
▁matter
▁numbers
▁move
▁worked
▁simply
▁release
▁km
%)
get
▁input
▁money
▁equation
▁died
▁white
begin
▁cross
▁server
▁ever
▁According
▁European
li
▁applied
▁Me
▁identified
▁Your
▁turn
▁density
▁feature
▁presence
▁India
ting
▁served
▁necessary
▁speed
▁anything
▁write
like
ner
▁writing
▁sequence
▁limited
▁search
▁unit
▁America
▁address
▁u
▁political
▁longer
▁property
▁elements
▁young
ler
▁differences
▁General
▁son
rd
▁East
▁believe
▁larger
▁distance
▁technology
▁village
▁Group
io
▁Be
▁gene
▁base
▁ground
▁President
▁variables
log
▁date
▁includes
▁reduced
▁History
▁table
ating
▁getting
▁activities
▁father
▁child
lin
▁previously
▁algorithm
▁Con
ol
▁ability
ce
▁medical
▁outside
▁reference
▁James
▁CD
▁El
min
den
name
▁Air
▁easy
▁Center
▁users
▁determine
▁signal
▁gives
▁living
▁Not
▁leading
▁international
ter
▁limit
▁today
▁selected
▁direct
▁lost
▁files
▁object
▁context
ent
▁comes
▁UK
▁heart
type
ul
di
▁construction
▁constant
▁Most
▁David
ance
▁Le
▁status
▁inside
▁z
con
▁min
▁big
▁subject
day
▁global
not
▁determined
▁wrong
field
▁basis
▁computer
▁professional
▁personal
▁rest
▁else
,”
ies
▁Other
▁moved
▁improve
▁linear
▁frequency
▁William
▁option
men
▁job
▁Paul
▁map
▁parts
▁greater
▁device
▁domain
▁contains
Fig
▁Black
▁Note
▁front
▁feel
▁fine
▁Pro
▁Her
▁private
▁focus
▁location
mu
▁micro
▁match
▁score
▁central
▁More
()
▁measure
be
▁images
▁highly
▁zero
▁modern
ri
▁q
▁England
▁Go
my
go
▁popular
In
▁Act
▁machine
▁takes
▁face
▁variable
▁France
▁plan
▁room
▁ratio
ham
▁individuals
▁gas
▁measured
▁difficult
▁inter
way
▁generally
▁dis
▁maximum
▁decision
▁pay
▁whose
▁club
▁overall
▁Na
▁center
▁suggest
▁policy
▁George
▁night
▁industry
▁Art
▁scale
▁Street
bar
net
▁party
ability
do
▁Pre
▁understanding
▁acid
▁wrote
▁Church
▁direction
▁contact
▁novel
▁King
▁behavior
▁Two
▁district
▁Best
▁sound
▁art
▁random
▁vector
▁Canada
▁fixed
▁asked
▁·
▁author
->
▁California
▁influence
mm
▁recorded
▁allows
▁uses
▁entire
▁red
old
sh
▁closed
▁Why
▁fire
off
▁plant
ish
▁mind
▁Health
ya
▁Department
▁equal
over
▁volume
▁towards
▁Australia
▁obtain
▁µ
▁reading
▁stress
ated
▁corresponding
▁respect
se
▁Post
▁win
▁throughout
▁situation
▁useful
he
▁minutes
▁participants
▁culture
▁increasing
▁mode
▁reduce
ac
▁learn
▁round
▁comment
▁changed
▁See
▁unique
▁nature
}}
▁weeks
▁details
▁//
▁definition
▁price
▁double
▁security
▁tell
▁collection
▁football
▁nothing
▁caused
▁Research
▁critical
▁goal
▁website
▁Cup
▁north
▁proof
▁build
▁memory
▁lack
ak
▁path
der
▁AM
▁office
▁Windows
▁components
▁Red
▁processes
▁allowed
ha
▁Council
▁relative
▁setting
▁color
▁pro
▁basic
▁web
▁wide
▁layer
▁prior
▁race
all
var
▁conducted
▁meaning
▁radio
▁DNA
▁vs
▁α
ana
▁share
▁highest
▁Association
▁Data
▁behind
sqrt
▁index
▁seem
▁Home
▁→
▁probability
▁Un
em
▁track
▁ago
▁recently
▁south
▁host
▁formation
▁exactly
ke
▁oil
dy
▁rates
▁brain
▁regular
▁studied
▁White
</
▁block
▁sites
▁purpose
▁Germany
▁mm
▁mentioned
▁appears
ted
▁student
▁Bo
▁require
▁drive
▁formed
▁gave
▁particularly
▁genes
▁tool
▁note
▁cover
term
▁completely
▁economic
▁root
▁sent
▁Europe
▁resources
side
mo
▁applications
infty
ni
▁military
▁background
ful
tic
▁everything
▁Music
▁Award
▁easily
▁Company
▁isn
▁solutions
▁attention
▁playing
▁choice
▁choose
▁task
▁damage
▁connected
▁ways
▁please
ial
▁Royal
▁success
▁companies
▁concentration
▁himself
ite
▁road
▁--
red
▁forward
·
▁smaller
▁sometimes
Re
▁players
▁reduction
▁Institute
lo
▁TV
▁appear
▁separate
▁themselves
=\
▁rules
▁figure
▁rule
▁stop
alpha
▁USA
▁appropriate
▁produce
ray
▁mother
▁relevant
▁interaction
)\
▁Don
▁heat
ex
▁Using
▁$(
▁ask
▁Road
▁offer
▁apply
▁financial
▁element
▁drug
▁di
ell
▁materials
▁contrast
▁Chinese
▁literature
▁resulting
▁Robert
▁Day
▁la
▁mice
▁saw
▁avoid
▁continue
▁combination
▁Court
▁Michael
▁revealed
▁instance
ba
back
▁Car
▁generated
▁bad
▁Green
▁introduced
ut
▁starting
▁findings
▁Many
ey
▁testing
▁appeared
▁returned
▁existing
▁remains
▁characteristics
▁continued
▁super
▁largest
▁operation
▁Yes
▁traditional
▁cut
▁married
ard
▁sources
ga
▁board
▁capacity
▁carried
▁programs
with
▁female
▁shall
po
▁parameter
▁con
▁beginning
▁Hall
▁month
▁calculated
▁fields
▁refer
▁movement
▁church
}(
▁connection
yl
▁Party
which
▁resistance
▁Indian
▁regions
▁attack
▁leave
▁legal
ina
▁earlier
▁books
▁wife
▁Union
▁interesting
$$
▁becomes
▁identify
▁\\
▁soon
▁develop
▁approximately
▁actual
▁extra
▁transfer
▁Ha
▁variety
sen
ron
▁deal
▁fully
▁Another
▁Japan
▁pattern
▁completed
▁Division
▁hit
▁wanted
▁successful
▁Club
▁charge
▁anyone
▁requires
▁Thomas
▁goes
pt
▁×
▁Because
▁assume
‐
▁told
▁staff
▁rights
▁Posted
▁exist
▁units
we
▁Just
▁sets
▁Are
ence
▁forms
▁prove
▁COVID
▁saying
▁contract
▁older
▁science
▁proteins
▁Life
▁component
▁placed
▁Law
▁pain
▁announced
ID
▁Science
▁Army
▁experimental
▁treated
▁Great
▁internal
▁Section
ah
▁containing
▁mid
lan
▁remove
▁±
ber
▁Li
so
ities
")
ti
▁Thank
▁Mr
▁install
▁upper
▁options
▁election
▁Australian
▁Western
▁Please
▁suggested
▁expressed
▁hold
ster
▁Bar
ier
▁achieve
▁Africa
−
▁safety
▁ensure
▁Mo
▁Education
▁seven
▁schools
▁Peter
▁selection
▁opened
▁fast
▁define
▁functional
▁Each
ium
▁app
izing
▁blue
gen
▁Central
▁System
▁sign
▁Moreover
▁default
ko
▁Time
lim
▁experiments
▁looks
α
▁organization
▁Lake
▁explain
▁external
▁statement
▁Ca
▁star
ford
▁break
▁mechanism
▁official
▁sea
▁therapy
▁forces
||
▁bgcolor
▁formula
▁digital
▁Furthermore
▁majority
▁log
▁mainly
well
▁Japanese
▁prevent
▁middle
▁Both
▁relatively
▁regarding
▁poor
▁concept
ov
▁Service
▁Mark
▁Open
▁television
▁measures
phi
▁strategy
ize
ten
▁characters
▁items
▁channel
bo
box
▁comparison
▁joined
▁trade
▁ten
▁load
▁square
▁detection
▁box
▁continuous
▁solve
sin
▁mg
▁screen
▁capital
ab
▁operations
▁infection
▁tissue
▁court
▁tests
▁message
▁package
▁update
ology
▁$$\
list
▁tree
▁director
▁collected
ang
▁techniques
▁Am
port
mer
▁police
▁Washington
▁coming
chi
▁demonstrated
▁Love
▁act
▁families
▁stated
▁Society
php
▁perform
▁decided
▁Lord
▁income
▁medium
wa
▁core
▁African
▁Russian
▁tools
▁Second
ip
ville
▁meet
▁exists
▁hope
related
▁Mac
▁en
▁processing
▁fit
▁strength
▁Finally
▁pass
▁reach
▁Se
▁ex
▁Ar
ide
▁eight
▁database
▁estimated
▁reaction
▁male
▁finite
}{\
cos
▁tumor
▁supply
▁display
▁shape
)=
▁bar
ase
▁Per
▁equivalent
▁teams
▁Charles
▁supported
▁alternative
▁pretty
▁removed
▁increases
▁metal
▁Super
▁listed
▁except
▁structures
▁format
▁Any
},
her
▁indicate
▁alone
)(
▁technique
▁Di
ise
▁combined
▁cm
▁eventually
▁installed
▁commercial
▁Even
▁evaluation
▁providing
au
▁represent
▁Island
▁script
▁consistent
▁moment
ring
▁affect
▁sum
▁Minister
▁implementation
▁authors
let
▁reached
wood
▁PC
ee
▁fall
▁Canadian
▁woman
▁devices
▁procedure
align
ki
▁daily
ek
▁comments
uk
▁voltage
▁Star
▁steps
▁responsible
▁improved
▁noted
▁Good
▁parents
▁tax
▁green
▁bio
▁tested
▁episode
▁node
▁minimum
▁couple
bin
=#
▁Under
ino
▁whereas
ung
▁Bay
▁correlation
▁cycle
▁quickly
ure
data
▁Committee
ger
▁moving
▁receive
▁classes
▁card
▁association
ong
▁chain
▁save
▁Richard
▁mostly
▁Jan
▁occur
▁animals
▁requirements
▁percent
▁Board
)^
▁objects
▁brought
kin
▁hospital
lib
▁signed
▁Over
▁relation
▁immediately
▁bring
test
▁Sun
▁People
▁Government
▁motion
▁News
▁Sch
▁communication
▁experiment
ative
level
▁edge
bit
▁string
▁failure
▁indicated
▁skills
▁deep
▁reasons
▁giving
▁clearly
▁Christian
▁column
▁Power
▁daughter
▁wall
▁college
▁costs
tion
▁exposure
\\
▁Public
▁met
led
▁gold
▁killed
▁generation
▁Du
▁friends
▁benefit
▁sold
▁List
▁framework
▁}
▁leads
▁select
We
▁skin
▁replaced
▁En
▁finding
mi
ker
▁visit
▁decrease
▁environmental
▁accuracy
^{-
▁Lu
▁failed
ice
▁Ne
ja
▁trial
▁photo
▁III
cdot
▁Sub
▁semi
▁names
▁affected
▁plants
▁summer
▁founded
▁projects
▁remain
ft
▁latter
▁Ho
▁importance
▁reports
▁essential
▁binding
▁Free
▁describe
▁Sp
▁transition
▁agreement
▁Results
ator
mp
▁bound
▁meeting
ik
▁slightly
▁Ben
▁thinking
▁travel
▁efficiency
▁store
▁agree
▁exchange
que
use
▁rock
▁remained
á
▁Men
▁showing
ii
▁runs
head
▁directed
▁o
▁depends
▁friend
free
▁missing
▁Mary
▁sex
▁represented
▁Smith
table
▁symptoms
▁contain
▁offers
▁equipment
▁transport
▁protection
▁maybe
▁derived
▁attempt
▁confirmed
▁route
▁finally
▁noise
ap
▁Use
▁opening
za
▁Google
▁beyond
▁Women
▁records
▁claim
▁expect
▁society
▁resolution
ci
▁east
▁argument
▁campaign
▁request
▁picture
▁plays
▁originally
▁detected
don
▁analyzed
▁Texas
▁remaining
specific
▁nearly
▁Earth
▁solid
▁CO
▁secondary
▁peak
▁worth
▁Roman
▁engine
▁->
user
▁discussed
▁examples
▁teaching
▁slow
ised
ists
▁competition
▁thanks
▁lives
▁wave
▁Development
len
▁pair
▁platform
▁Ka
▁β
par
▁typically
▁extended
▁buy
ze
▁activation
▁guess
tra
our
▁everyone
▁port
▁▁▁▁▁▁▁▁▁▁▁
pe
▁chance
▁Sea
▁finished
▁Henry
che
▁array
▁frame
tro
▁creating
("
ru
▁gets
▁approaches
▁Water
▁interested
pm
▁assessment
▁height
ship
▁discussion
▁safe
▁magnetic
▁otherwise
▁graph
▁Museum
CD
▁window
▁adding
▁copy
▁Long
theta
▁measurements
▁west
▁Year
key
▁brother
▁president
▁suggests
▁achieved
▁poly
▁genetic
▁equations
MS
▁Show
▁Championship
▁stay
ot
▁Grand
}^
ow
ius
US
▁spent
▁Chi
html
▁estimate
▁measurement
▁description
To
cap
▁Tom
▁evaluate
▁sp
▁Har
▁turned
▁effort
tor
▁category
▁expansion
▁consists
▁Does
▁benefits
▁perhaps
▁Italian
▁dark
▁decreased
▁specifically
▁email
pa
▁profile
▁bottom
▁entry
▁ideas
▁administration
scale
▁spin
▁Early
▁outcomes
▁chosen
▁subjects
▁THE
▁Inc
▁heavy
va
▁developing
▁operator
▁Up
▁identity
▁Sir
▁master
▁quantum
▁Martin
ED
▁gain
times
▁Academy
▁Book
ible
▁Big
▁Well
op
▁Brown
▁causes
▁document
mon
▁Bank
▁Ma
▁count
point
▁client
▁Bill
▁severe
▁Hill
▁survey
▁sort
▁send
▁despite
▁elected
▁interface
SE
▁movie
▁stable
▁injury
▁annual
low
▁false
▁hyper
▁exact
▁soil
isation
▁Ad
▁chemical
▁criteria
▁Sa
▁Part
▁Republic
▁curve
▁serve
▁operating
SP
▁patterns
▁passed
▁songs
▁eye
▁Lo
▁phone
▁Top
▁diagnosis
new
partial
class
▁interactions
▁goals
▁native
▁exercise
▁theorem
▁Will
▁news
▁talk
but
▁Out
▁proper
It
▁boundary
▁settings
▁represents
▁Kingdom
▁Ver
▁visual
▁referred
▁Film
▁answers
▁league
▁planning
▁mixed
▁storage
▁angle
▁configuration
les
▁traffic
dimensional
▁Press
color
▁surgery
state
▁widely
▁workers
('
▁Spanish
▁Force
▁Once
ping
ph
▁hot
▁train
▁spread
ini
▁happen
OR
▁leader
▁auto
▁numerous
▁Ro
▁fourth
▁»
▁Old
gar
▁ship
▁Los
▁remember
row
▁Hi
▁plane
▁Director
mann
▁optimal
ward
▁extension
▁whom
▁growing
▁academic
▁Their
▁Tri
form
▁Business
▁places
▁particles
▁trans
▁perfect
down
▁parallel
SA
▁depending
board
▁fight
▁generate
ny
▁aircraft
house
▁actions
▁compare
page
▁pick
▁shared
▁letter
cc
▁survival
▁commonly
▁origin
▁classification
▁Office
▁debut
▁molecular
▁yes
▁enter
lambda
ane
+\
▁occurs
▁loop
art
▁Next
▁scheme
▁library
▁Lee
▁switch
▁ball
▁evaluated
▁Last
oc
ification
▁advanced
▁technical
▁changing
~
▁custom
▁Journal
light
▁appearance
▁analyses
▁Design
▁animal
space
▁networks
▁▁▁▁▁▁▁▁▁▁
▁Series
ver
▁opportunity
▁cast
▁bi
▁errors
▁Paris
▁asking
**
▁Mi
ez
▁Order
▁investigated
▁stock
▁climate
▁Based
▁RNA
▁appointed
▁strategies
▁fish
▁carbon
ella
ou
▁percentage
IP
▁OS
CT
▁velocity
▁writer
▁representation
ors
▁divided
▁happens
▁guitar
▁Catholic
▁driver
▁CA
▁communities
▁manager
cm
▁distinct
▁vehicle
▁onto
▁Review
▁Three
ura
▁rise
ck
sch
▁filter
this
▁covered
can
▁dose
▁responses
▁nice
▁smooth
▁Project
▁integral
▁edit
dev
▁Social
▁holds
▁protect
▁Pa
▁birth
▁challenge
iv
▁Following
▁IP
▁split
hr
ical
▁£
▁artist
▁films
cell
▁Festival
▁piece
pro
▁detailed
▁dead
▁Management
berg
mar
▁nor
▁Land
▁valid
▁disk
▁Human
AP
▁Despite
ile
▁foreign
▁offered
▁unknown
▁investigate
▁prepared
▁Bi
▁≤
ST
▁variation
▁stand
add
▁wind
app
▁diseases
▁plans
▁motor
▁Awards
▁composition
▁Si
▁sector
ven
▁fix
vo
▁Su
cha
ji
▁depth
▁mechanisms
▁Hospital
▁induced
ric
▁heard
▁centre
▁efficient
▁voice
▁Team
▁cultural
▁outcome
▁advantage
top
▁efforts
▁ring
▁easier
▁meta
▁circuit
▁occurred
▁Rock
ran
▁healthy
▁existence
▁IL
▁Ko
▁sports
í
path
▁mental
▁river
▁replace
▁shot
▁electric
▁demand
▁Blue
▁coach
Table
▁Only
▁aspects
▁Like
Name
▁Saint
▁virus
▁leaves
fa
▁federal
py
file
▁explained
▁minor
▁draw
▁balance
br
war
tal
▁evolution
▁indicates
▁regional
▁toward
▁agent
hi
▁featured
▁Jesus
▁manner
▁λ
▁dynamic
▁simulation
▁division
post
▁famous
du
▁university
▁panel
▁transmission
ara
▁leaving
▁fuel
▁intended
▁Records
▁mobile
▁module
▁ones
▁Italy
▁hence
▁Russia
ev
▁Line
▁mis
▁statistical
();
▁Theorem
▁becoming
▁DC
Figure
PA
▁Ireland
▁align
▁modified
▁concentrations
▁linked
▁Pi
▁=>
▁muscle
▁Joseph
▁′
▁maintain
▁row
▁Sam
▁detail
▁helped
▁Ubuntu
▁Young
▁connect
▁Cor
▁flat
▁spectrum
▁AND
▁counter
▁label
▁Jo
▁item
ery
▁focused
▁Hence
▁print
induced
▁typical
▁stars
▁sentence
▁improvement
▁possibly
▁MS
ho
▁meant
▁scientific
▁Ba
run
▁powerful
▁Cross
▁nuclear
▁Chicago
▁suitable
▁Ni
ari
eg
▁serious
▁Fe
▁press
▁Vol
▁Dis
▁resulted
▁paid
▁Te
▁stories
▁raised
▁plot
ens
usepackage
car
▁recommend
▁adult
▁Medical
▁ended
▁Foundation
▁possibility
▁calculate
▁scores
from
▁regression
han
ada
▁plasma
No
ita
▁brand
▁controlled
map
▁historical
pre
▁Gold
▁drop
▁Florida
▁Technology
▁interview
▁Mount
▁architecture
▁bone
▁bank
▁kept
▁extent
hu
▁membrane
▁click
▁ran
▁Christ
ep
▁considering
▁managed
▁credit
▁Pan
TV
▁~
▁joint
PS
▁Where
▁vote
▁Da
har
▁Information
▁download
▁helps
link
▁se
▁Live
▁indeed
SS
▁Test
▁strongly
▁Commission
▁Bio
▁yourself
▁Services
▁Network
▁felt
▁distributed
more
res
▁median
lu
▁constructed
▁urban
▁accept
▁camera
▁observations
▁consumption
▁clean
▁Analysis
▁unless
▁particle
▁assess
▁frequently
▁sufficient
▁winning
▁singer
▁Zealand
▁twice
ue
▁accepted
bi
▁iron
▁extremely
▁Greek
▁battle
▁husband
▁initially
▁pages
are
▁buildings
▁candidate
▁scene
▁huge
▁awarded
▁Its
▁liver
rm
ps
tz
▁Arts
size
▁Jack
▁wild
▁Par
mathcal
▁sleep
▁eyes
▁floor
▁interval
▁religious
▁hands
▁park
code
▁boot
dis
▁thermal
▁ideal
▁Among
▁classical
▁intervention
▁Game
▁Web
▁plus
CO
▁drugs
ec
▁session
▁Mexico
▁contribution
▁kernel
▁dry
▁department
▁nine
book
ero
▁certainly
CA
▁immune
▁stability
▁hair
pur
▁studio
▁Dan
dependent
nt
▁cities
▁Conference
▁objective
▁latest
▁subsequent
▁Ab
▁Eq
▁primarily
▁island
▁rare
▁fun
ach
je
▁OF
▁teacher
▁net
▁Centre
ud
▁opinion
ins
▁Vi
▁Radio
▁ID
▁shift
tan
▁Before
▁updated
▁investigation
▁guide
▁Sha
▁discovered
▁Frank
▁creation
▁sales
▁Anti
▁forced
▁Israel
▁allowing
ris
AM
IN
▁discuss
▁firm
▁End
▁assigned
▁BC
ble
▁Football
▁senior
▁structural
▁trust
▁ice
▁sequences
cy
▁aim
uff
ette
▁award
ag
▁join
document
▁Po
order
▁σ
▁spatial
▁Valley
▁Special
▁cold
work
▁mono
▁nodes
▁Van
▁duration
е
▁edition
▁Community
▁Congress
▁articles
▁About
▁Chief
▁lived
▁employees
▁posted
▁practices
▁Internet
":
}^{
▁γ
▁implies
▁notice
▁Ke
▁successfully
▁purchase
▁straight
▁Work
▁stuff
▁strain
▁delivery
ries
▁hour
law
value
▁Ac
ula
▁southern
hat
β
▁Northern
▁Ti
▁contained
▁Media
▁Ta
▁facilities
▁absence
▁Light
▁Mon
ay
▁progress
▁accurate
▁gender
qui
▁positions
▁topic
ning
▁border
nu
▁width
beta
▁billion
▁morning
▁Model
▁Family
▁terminal
▁economy
▁virtual
ix
▁Virginia
▁wish
ified
▁feet
▁northern
▁links
▁**
▁examined
king
val
▁composed
ick
iz
ney
▁experienced
▁Dec
▁recovery
▁begin
med
▁optical
▁Town
-\
▁μ
▁chronic
▁relations
tag
▁entered
▁AD
▁≥
▁Given
▁sensitivity
▁behaviour
▁Type
▁recording
▁liquid
▁import
▁Sunday
vin
bra
▁Port
▁carry
▁obvious
ica
▁claims
▁protocol
▁integration
▁challenges
▁employed
van
▁surrounding
AL
▁recommended
▁industrial
▁hear
▁Ex
▁Head
▁PA
style
▁Gar
ig
▁blog
▁wood
ably
▁intensity
▁matches
▁fear
sky
sha
▁assumed
▁Additionally
▁miles
▁Asia
mit
ano
cr
ff
▁marriage
▁effectively
▁Station
vi
▁tour
▁formal
▁Get
▁weak
▁tasks
▁Battle
TS
▁talking
▁Summer
▁Angeles
▁Master
▁Set
▁Such
▁implemented
]{
▁Tour
▁recognition
▁relationships
▁foot
▁Fire
}$$
sub
▁Cu
▁grow
▁truth
oon
▁promote
group
▁investment
▁Inter
▁spring
▁Who
▁residents
▁diet
▁IV
▁practical
▁adults
▁dynamics
▁perspective
▁receptor
era
▁standards
▁nm
▁serum
▁cluster
▁engineering
▁wouldn
max
ich
▁Play
part
▁teachers
▁Bur
▁mi
▁organizations
▁Louis
om
▁MA
▁demonstrate
stone
PC
▁Have
▁happened
▁electron
▁excellent
▁myself
▁sections
▁advance
ani
▁die
▁directory
▁versions
II
▁walk
lon
▁adopted
▁Studies
air
aka
▁mouse
▁zone
▁controls
▁advice
▁humans
▁automatically
ions
▁aware
▁faster
db
▁soft
▁fundamental
▁yield
▁languages
▁branch
▁resource
▁approved
▁setup
▁dependent
▁detect
▁biological
wi
▁Southern
ae
▁customers
▁Due
▁launched
▁Further
▁Games
▁compact
ü
▁isolated
▁:)
▁feed
▁purposes
▁translation
▁parent
xi
▁acquired
▁sounds
▁Ge
▁differential
av
▁door
leq
▁==
▁glass
▁mechanical
▁Real
▁monitoring
▁degrees
▁handle
▁western
▁breast
▁scored
ai
▁pathway
mathbf
▁flight
▁imaging
▁Times
];
▁Back
ped
eh
▁Middle
ola
sigma
▁principal
▁du
▁seat
pl
▁actor
ky
▁characterized
ros
▁civil
▁contribute
▁agents
▁driving
▁Mc
▁bridge
AT
▁depend
long
▁mission
▁transformation
ological
▁inner
▁Code
▁believed
▁researchers
sp
▁radiation
▁correctly
▁editor
▁usage
▁Shi
▁ready
▁Wood
▁opposite
▁watch
▁signals
▁observation
▁Fa
istic
▁Cha
▁attended
ans
▁steel
▁battery
_{\
▁dataset
▁Spain
▁dimension
▁internet
▁secret
▁trials
▁owned
▁laws
▁grade
▁mention
▁Introduction
▁mortality
▁calls
gra
▁spaces
▁principle
illa
▁im
▁recognized
▁looked
▁Later
▁fraction
Id
▁officer
а
▁properly
cal
▁categories
▁CI
▁views
mid
">
▁starts
De
▁Johnson
▁versus
▁notes
▁Er
gy
nic
▁conventional
▁speech
▁parties
▁dedicated
]]
▁locations
▁button
▁Professor
range
▁assessed
▁none
ram
▁gun
▁static
?"
▁programming
▁largely
▁customer
▁underlying
▁explanation
▁happy
▁Major
▁owner
▁wait
▁reality
non
▁Study
gi
Con
▁nano
▁fluid
LS
some
▁roles
▁Field
▁…
oma
▁electronic
si
▁tri
▁δ
▁Control
▁Queen
▁Daniel
▁lies
▁Scott
▁neuro
print
▁females
lam
▁census
▁para
▁Jones
▁partner
kg
▁coefficient
view
▁sensor
item
▁county
▁query
▁stages
▁IN
▁max
▁tend
▁Little
star
tu
▁enable
etc
▁musical
▁Ra
▁integrated
IT
▁Ag
He
ena
▁Non
▁involving
▁army
oo
ren
▁Today
▁alcohol
▁Program
▁Soviet
▁empty
▁professor
▁implement
▁Class
▁Bob
▁leaders
ng
▁MP
local
center
▁buffer
FA
TH
▁stored
▁unable
▁Prime
▁diameter
▁policies
ons
▁Federal
▁extract
▁trees
▁Irish
▁populations
SC
▁acute
▁Province
▁whatever
▁Call
▁earth
ett
▁Prince
AR
▁portion
▁shell
▁pop
sk
▁receiving
ata
▁oxygen
FR
▁helpful
fold
])
▁educational
▁maps
▁identification
jo
mb
▁entirely
▁subsequently
FT
▁hypothesis
This
▁windows
ml
lic
▁van
▁Edward
▁explore
▁suggesting
BC
▁trouble
▁broad
▁procedures
▁rank
▁feedback
▁fresh
BA
▁Pacific
▁Joe
▁Win
Co
▁Pe
ln
▁audio
▁Read
▁chief
▁installation
vert
▁learned
▁Global
▁quick
▁significance
▁king
▁sexual
▁rich
lar
▁∼
▁grid
ants
zo
tri
▁reducing
▁Civil
▁causing
▁Take
ging
▁characteristic
▁layers
▁sister
▁conclusion
▁remote
▁chart
▁pandemic
($
New
▁gap
▁potentially
ju
▁laser
▁Main
▁magazine
▁politician
▁forest
GB
)$.
La
ub
▁threshold
ned
▁Pat
▁usual
▁doubt
▁indicating
▁railway
water
▁limits
▁Cal
EC
mod
▁marked
▁Track
▁artists
▁Hu
▁spot
▁Wales
▁EU
▁Check
zi
▁solar
▁Tu
ea
▁partition
node
amp
▁baseline
▁sides
AS
▁minimal
ole
▁continues
▁Jewish
▁Library
▁rapid
▁regulation
▁issued
▁opportunities
place
▁algorithms
ew
▁OP
▁freedom
▁proved
fi
▁Ku
▁capture
fer
▁sell
▁estimates
▁Final
▁Latin
TC
NC
▁τ
▁predicted
▁assay
nes
▁bus
▁concerns
▁Make
▁prime
▁returns
▁plate
▁Security
▁claimed
▁Maybe
tr
▁transferred
▁Carolina
dia
▁Governor
az
town
OS
room
▁serving
▁Navy
▁acts
▁closely
▁knew
▁SP
You
▁leadership
▁Several
▁documents
▁Asian
▁SC
▁winter
▁attacks
DA
uri
ade
▁calculation
div
▁establish
ever
▁compounds
band
LC
▁manage
▁π
http
Al
▁reviews
▁maintenance
▁Ru
▁treat
▁exposed
▁describes
▁sun
ING
▁dual
CC
▁waste
▁supporting
▁construct
▁prediction
▁estate
▁institutions
▁wasn
▁finish
▁experiences
▁Kar
For
▁logic
▁tells
ä
▁rural
▁Chris
▁mine
▁insurance
▁Night
▁Mike
▁conflict
lock
▁enjoy
home
tle
SI
▁extensive
▁Ten
▁concern
▁USB
▁Pennsylvania
yn
▁Sh
▁vocals
▁Col
▁trend
rate
▁lung
▁nation
▁axis
▁street
▁fat
▁fan
▁assumption
▁App
▁Mel
▁union
BS
▁housing
▁info
IM
▁disc
AD
▁Britain
▁producer
▁Ch
omega
▁Police
LE
▁signaling
▁Page
usr
▁MD
▁Linux
▁partial
wan
ious
▁delay
▁wear
▁coefficients
▁youth
MA
▁dog
▁echo
▁aid
▁express
▁interpretation
▁Gen
mus
ES
▁Number
▁crew
▁Area
bb
▁Williams
ert
tt
▁metric
▁SE
▁trip
▁("
▁variance
▁hardware
▁visible
ati
▁bill
▁fill
▁reasonable
▁secure
▁arm
▁theoretical
ene
read
▁beautiful
▁broken
▁Airport
▁ordered
MC
▁ancient
▁coverage
▁scenario
▁Which
}$.
▁executive
▁prefer
cat
▁Engineering
▁confidence
▁budget
▁acting
epsilon
▁reflect
▁turns
▁ST
▁rotation
▁repair
▁trained
▁circle
▁holding
▁pieces
▁girl
▁pH
note
▁broadcast
▁pairs
▁technologies
▁cloud
▁participate
▁sensitive
pp
▁introduction
▁Ja
▁PS
▁coupling
cher
ER
cl
▁Instead
ama
▁spend
▁ISBN
▁Key
▁stone
ast
▁refers
MP
▁vision
▁sale
▁weather
▁Video
Ro
ok
▁molecules
▁seconds
▁authority
▁Poland
mail
▁uniform
tel
wing
▁Empire
▁Secretary
DC
▁performing
▁beam
▁Che
▁speak
itis
▁channels
▁Jun
site
▁magnitude
▁Bu
▁cool
LP
ular
CR
▁∆
▁Band
▁emission
▁pure
▁Four
▁capable
▁specified
▁funding
math
▁Eastern
▁era
▁Plan
▁SO
▁Ki
▁dimensions
Pro
▁Boston
known
mathrm
▁desired
▁decades
▁kill
▁necessarily
yo
▁definitely
▁Dar
▁Ya
__
▁defeated
▁facility
]$
och
▁θ
now
ret
▁males
▁approximation
▁Photo
TP
++
▁salt
inter
▁fair
▁Add
▁Reply
▁Bridge
▁debate
ski
▁stream
▁Sports
▁segment
▁bias
▁understood
kar
▁Iran
▁tournament
^{\
dar
vec
OL
ei
▁Report
▁numerical
▁View
▁Mu
▁screening
CI
delta
ball
▁agreed
▁pull
▁offering
IL
▁Ga
▁wants
osis
▁operated
rightarrow
qu
▁couldn
▁Trump
▁comprehensive
▁somewhat
})
af
▁normally
▁tracks
▁theme
ala
▁Case
▁Local
▁optimization
that
iff
▁conference
▁Sal
▁▁▁▁▁▁▁▁▁▁▁▁▁▁▁
▁stations
gon
▁des
▁proportion
▁blocks
▁Saturday
graph
▁Mer
▁Francisco
▁Building
▁Space
▁Source
hand
▁Justice
▁thank
▁Ph
▁cat
▁vertical
▁HIV
ense
ose
▁Children
bl
▁Death
DR
PR
▁mix
▁colour
▁Indeed
▁representative
▁defense
▁genus
▁Name
▁complexity
▁attached
▁Railway
▁clients
▁synthesis
date
▁begins
ding
▁Theatre
▁seeing
▁binary
▁intra
▁license
▁Friday
▁CT
▁Server
▁Jim
rich
eb
▁dance
▁leg
▁domestic
▁enhanced
▁victory
ā
▁Mal
tin
▁reverse
▁thin
▁Every
lie
ob
▁Energy
tar
▁medicine
idae
▁absolute
▁Tim
▁FC
▁syndrome
▁decisions
▁brief
CS
▁gone
col
▁planned
▁publication
▁contributions
▁Op
avi
▁cognitive
SD
▁Did
▁mark
FS
▁password
▁compute
▁statistics
DS
▁newly
▁del
tes
yr
▁sharing
▁folder
▁replacement
▁haven
ple
▁cards
^\
open
▁camp
▁decay
▁Val
▁involves
▁massive
▁winner
▁lib
▁Try
▁Dutch
▁Pen
mark
▁diabetes
▁AS
American
▁coordinates
▁Bre
▁Ohio
▁sampling
▁nearby
▁decide
eo
▁Corporation
gan
ug
action
▁lowest
mat
▁Michigan
▁purchased
▁Background
▁examine
▁funds
RO
▁Alexander
▁Trans
▁radius
od
▁concrete
▁displayed
▁lose
▁OR
▁operators
▁worse
▁prevalence
▁hole
▁silver
▁letters
▁Taylor
▁covers
RS
OC
ations
▁organized
▁Could
▁electrical
str
▁signs
▁Care
▁Min
▁identical
▁Korea
▁TO
▁coast
▁mM
▁concerned
def
­
▁neither
Mo
▁Parliament
▁extreme
core
▁Apple
▁figures
▁peace
▁null
dal
▁edited
▁conversion
ties
▁audience
▁der
body
▁maintained
▁manual
▁SD
▁younger
aw
▁Santa
▁scope
Pa
▁impossible
▁namely
▁ends
▁convert
▁Market
▁schedule
▁serves
▁Senate
▁supposed
▁religion
og
▁incidence
▁escape
▁feeling
▁captured
cho
▁injection
sim
elli
▁accounts
TA
▁vehicles
▁papers
▁predict
▁vitro
ó
aki
▁requirement
array
▁Gu
▁pool
▁Online
▁neural
▁Ed
▁Point
▁mapping
lt
bu
▁household
including
▁Georgia
▁conduct
▁tube
▁observe
▁incident
▁ρ
▁NO
EL
▁analyze
▁Va
▁Ser
▁physics
▁tail
CP
ado
▁Multi
▁Jean
eng
▁sudo
▁Gi
▁Ltd
▁worldwide
▁Similarly
dan
▁bought
script
hal
▁farm
Be
▁crucial
▁symbol
▁disorder
▁Creek
▁Far
▁Oh
▁therapeutic
▁Sciences
ock
▁kg
▁expand
▁pump
▁bodies
▁bacteria
▁keeping
▁flag
▁Consider
▁houses
matic
▁standing
DM
▁criminal
▁prices
▁narrow
▁familiar
pin
▁gauge
▁Mor
▁transform
▁Mad
▁Th
▁sin
▁Full
▁polynomial
index
▁prominent
▁separated
}_
▁cars
▁ahead
how
url
▁organic
▁passing
tre
bound
▁subset
▁Yu
ye
▁PD
▁constraints
\}$
vent
▁CH
▁Jr
ax
▁Max
▁Way
▁Wall
▁temperatures
▁examination
rus
▁applying
▁representing
▁arrived
▁Medicine
▁Bell
▁fans
▁Christmas
▁Democratic
ack
 
▁cellular
▁confirm
▁«
▁touch
▁Stephen
▁launch
ese
▁Aug
▁candidates
▁persons
▁rats
server
ō
▁AC
ava
bus
uck
▁odd
▁yellow
▁laboratory
▁emergency
▁cable
▁Steve
rin
yan
▁macro
char
▁pp
▁Food
My
▁Andrew
▁diversity
amine
▁presents
▁girls
label
SO
▁menu
▁pilot
del
▁roll
ku
▁Stone
IF
▁extend
▁introduce
▁Micro
▁hybrid
ib
▁guidelines
)}
▁tissues
conf
▁Methods
▁corner
▁quarter
MO
ora
▁Fort
▁taught
▁mining
▁Support
▁repeated
If
string
win
▁fruit
▁supports
▁''
▁Route
▁Assembly
▁instructions
cent
fe
Data
▁vary
IA
▁organ
▁wine
▁charged
▁Oct
▁jobs
▁Scotland
▁tag
base
▁inhibition
▁attempts
▁mixture
▁simulations
frame
▁smart
▁registered
▁fifth
▁drawn
ms
×
ira
▁fell
▁inclusion
▁bytes
PM
▁planet
▁statistically
▁regard
▁register
▁integer
▁aged
ls
zy
▁monitor
▁plastic
▁officers
▁Nov
mic
▁Step
▁retired
▁repeat
DE
▁Championships
▁Im
▁Kong
▁targets
▁Ministry
▁von
dx
▁reliable
▁presentation
AF
SM
▁curves
▁correlated
▁depression
▁earned
▁aspect
▁Microsoft
▁businesses
las
▁Comp
▁Heart
▁estimation
title
с
elle
▁calling
section
▁aren
List
ö
▁Those
▁expanded
▁preparation
eta
▁infrastructure
▁respond
▁moderate
▁complicated
▁rapidly
▁responsibility
GS
▁Columbia
ect
▁administrative
}=
rat
®
▁situations
▁fail
san
system
And
▁classic
и
▁chapter
▁ha
▁Hong
о
▁Cat
psi
TE
▁abuse
▁algebra
▁closer
FF
mes
▁grew
RA
▁diagnostic
▁healthcare
https
▁classified
ken
▁Ball
▁Chapter
▁eastern
▁limitations
ify
▁stem
▁hearing
▁filled
▁council
▁glucose
shi
▁violence
â
▁par
▁expensive
▁influenced
▁Right
▁lock
cu
▁infinite
▁collaboration
ami
▁Han
Type
▁Elizabeth
▁bass
ale
▁municipality
▁Brazil
▁EP
▁connections
▁troops
▁Br
▁mRNA
▁greatly
▁protected
▁Personal
▁Tor
▁summary
▁Ak
life
▁fashion
▁Ban
struct
▁gained
big
▁surgical
▁authorities
▁episodes
▁essentially
EE
▁Third
)=\
▁Kim
ender
▁Olympics
gate
▁Wi
▁Song
▁households
▁disorders
▁Lemma
▁courses
▁φ
▁crime
▁Proof
▁Ju
▁vectors
▁minute
▁stroke
▁Gr
▁messages
▁landscape
▁realize
▁citizens
▁greatest
DF
Po
master
▁denote
hy
▁Coast
OD
▁committee
▁reporting
ulation
▁derivative
tex
▁Cast
▁enhance
▁marketing
start
try
▁Find
aries
▁improving
▁speaking
▁migration
▁enzyme
▁Ram
▁differ
▁arbitrary
▁principles
▁Jul
▁edges
▁exit
oli
▁bounded
▁browser
▁fiber
▁shock
▁murder
▁crisis
▁producing
▁basically
▁interact
▁Jersey
▁arms
dir
Do
▁consisting
▁Rose
PD
source
▁permanent
▁momentum
HS
▁mountain
▁removal
▁ultimately
Le
▁Age
▁Down
ij
▁references
▁Beach
▁FA
ston
ising
▁wire
▁Ray
▁geometry
▁eat
▁seek
▁neutral
▁modes
quad
▁province
▁Unit
▁roots
ika
▁spirit
pdf
▁desire
▁Wilson
▁Republican
▁copies
▁Date
▁debt
▁induction
▁warm
у
IO
▁Bal
▁separation
▁assistant
su
cut
▁Run
length
ural
AC
rie
even
";
▁Total
▁antibody
▁fly
num
▁drivers
▁airport
▁oral
▁Mass
IR
▁exp
▁assuming
▁Previous
such
▁interests
▁Simon
▁Peak
▁fellow
AA
▁grown
▁amino
ration
▁emotional
▁API
▁converted
▁promoted
▁ω
▁Berlin
PT
ida
arm
▁decline
NA
▁politics
▁extracted
rangle
▁Monday
▁Victoria
▁ft
▁dropped
tus
▁Unfortunately
▁listing
bal
▁delivered
▁Though
▁anyway
▁participation
▁UN
vis
und
▁Harry
▁compound
As
▁destroyed
▁spectral
▁cap
function
▁raise
▁collect
▁consent
▁expert
▁Matt
ians
▁pathways
ubuntu
▁push
▁milk
▁Adam
ON
▁biggest
▁journey
dd
▁bands
▁tab
▁Career
▁cash
ware
▁hidden
▁effectiveness
▁Through
▁computed
▁calculations
▁horse
|\
▁faith
▁cent
▁Digital
RP
block
stackexchange
▁▁▁▁▁▁▁▁▁▁▁▁▁▁
▁Standard
▁vaccine
▁recall
▁Fox
▁electro
▁www
▁vivo
▁Modern
IC
▁Ali
hen
▁Auto
exp
▁Illinois
▁Discussion
▁adaptation
▁sugar
▁aimed
▁payment
▁thousands
ington
▁kids
▁controller
ome
▁raw
ima
ash
▁noticed
▁Hot
▁agency
rig
▁diverse
▁reform
▁stopped
▁Hotel
▁Pakistan
▁Mountain
▁symmetry
▁amounts
▁Cap
▁Maria
▁CP
▁prison
▁declared
▁seed
▁template
▁consideration
▁rain
▁operate
▁Qu
▁concepts
▁notation
▁founder
where
cast
▁Duke
▁officials
▁wonder
▁orientation
tech
▁Low
▁posts
ban
▁labor
▁exception
ography
des
Ex
▁Supreme
▁propose
PI
▁opposed
▁flux
▁loan
▁newspaper
▁roof
EP
sec
self
▁transcription
CH
?”
ы
▁thickness
high
▁contemporary
▁variations
▁conclude
▁Avenue
you
”.
▁assistance
▁Hand
vers
▁Wa
▁ships
▁progression
▁stands
▁losing
▁math
▁soldiers
ν
▁Officer
▁inequality
▁periods
Man
▁shop
▁combat
iti
act
▁guest
also
▁defeat
▁hundred
▁Systems
в
▁Image
▁drama
▁instrument
▁involvement
All
OT
▁favorite
▁votes
▁Bra
▁helping
▁SA
▁Holy
▁fighting
making
▁walls
▁Gene
▁garden
▁crystal
uch
▁rear
}[
▁MC
▁Guide
ual
only
▁circumstances
ient
▁Jackson
▁frequent
ona
▁actress
%),
▁programme
▁Forest
rho
▁Short
▁Machine
gu
▁RE
▁Author
MB
▁historic
▁preferred
▁viral
▁reader
!!
die
CM
▁notion
BP
▁consecutive
▁foundation
▁HD
una
RE
י
▁clock
▁concluded
▁Ash
yard
▁Captain
AB
LA
▁checked
pha
▁intersection
▁strains
▁neurons
world
▁diagram
▁judge
▁outer
ef
▁Region
▁honor
▁Executive
▁Should
▁CC
▁Corps
▁manufacturing
▁twenty
▁extraction
▁fairly
▁export
▁apart
▁Ve
main
▁substantial
ture
▁granted
▁File
▁piano
▁systematic
▁Scottish
▁solved
▁poet
What
▁notable
▁killing
ving
▁documentation
▁favor
nie
cur
▁Season
lor
▁hotel
TO
▁contributed
▁Bishop
▁manufacturer
▁Mil
iya
▁MB
zen
▁domains
bro
▁orders
ute
lip
▁gradient
▁waiting
▁arguments
▁sizes
▁dependence
▁NOT
▁featuring
▁putting
▁Country
atory
▁adjacent
▁Olympic
▁bulk
wiki
▁Mill
Ra
▁participated
▁verify
▁BBC
▁columns
▁CR
▁basketball
▁stack
▁Trust
NS
▁catch
▁seasons
▁sh
▁respective
Mar
▁Manager
tis
▁temporal
▁Camp
▁chose
▁concerning
▁explicitly
▁Member
▁sand
▁ending
▁Korean
eth
▁simultaneously
▁Cho
▁comparing
▁Doctor
▁treatments
▁Toronto
▁regardless
met
▁locally
▁promotion
▁Survey
▁duplicate
▁beat
▁mouth
game
▁Site
▁acquisition
▁consequences
▁territory
▁Ri
▁Nu
burg
▁alongside
tern
NI
called
▁mathematical
▁pet
▁Facebook
ates
▁corresponds
▁charges
▁distributions
▁regime
▁Command
▁coal
▁Learning
▁decade
GA
▁Sydney
▁brown
▁Davis
▁informed
▁composer
tain
▁bond
▁valuable
▁markets
▁©
via
▁backup
▁medal
tur
▁immediate
▁rational
▁Sar
host
circ
HA
▁AI
▁Lady
▁spectra
ets
▁phrase
▁employment
▁seemed
position
gel
aria
▁Change
dt
▁machines
▁creative
Me
▁universe
RT
▁inspired
▁driven
▁Vo
▁hydrogen
▁precise
gram
▁manuscript
▁∞
▁clusters
▁rail
▁intelligence
▁Ber
▁efficacy
▁genome
▁Polish
▁assembly
▁videos
▁RT
γ
power
▁lists
▁applicable
▁lattice
▁Sky
]:
▁radical
▁Marine
▁powers
▁intermediate
▁journal
▁boy
nan
present
▁reactions
▁GP
▁robust
ico
▁settlement
▁Training
NO
▁cup
CL
▁Prize
λ
▁antibodies
oid
▁elections
ivity
▁uncertainty
▁statements
▁Sand
▁interior
▁inflammatory
▁Turkey
▁covering
▁coordinate
▁USS
▁welcome
▁increasingly
▁Netherlands
▁apparent
▁amplitude
▁suspect
▁enabled
▁ob
▁Com
hor
▁pictures
kan
ory
▁Lewis
▁chamber
▁Premier
▁bright
π
▁Ken
step
▁matrices
service
▁neighborhood
sur
▁chair
▁rep
▁Miss
▁op
▁Tar
▁Massachusetts
▁invasion
▁Eric
▁fault
Ha
▁Cell
▁Ω
ire
▁DM
lio
▁tank
▁modeling
▁dominant
▁produces
▁universal
▁differentiation
▁awareness
▁Place
▁NY
TI
▁topics
▁LA
km
Ma
product
press
gamma
▁variant
▁AP
gal
▁availability
▁threat
▁loading
eri
▁def
▁Carl
▁campus
▁draft
▁suffered
▁mutations
▁Books
▁convergence
▁committed
▁Hard
▁Week
Cl
▁adverse
▁delete
▁inflammation
▁Boy
▁proliferation
lay
▁regularly
face
▁mill
▁doctor
SL
▁ch
▁tradition
▁Silver
▁quantity
▁truly
dom
▁lots
▁shares
▁Rome
▁Francis
▁stronger
▁thread
DP
▁Patients
▁baby
▁EC
▁exhibit
▁infections
TL
PO
▁experts
▁Round
▁Administration
▁variants
▁Link
▁moves
mel
▁upgrade
rc
east
osa
▁frequencies
using
questions
chan
ace
aga
mont
▁Price
▁Tony
under
▁institution
case
▁Policy
▁Islands
▁Natural
án
▁lie
▁bacterial
▁restricted
▁thoughts
▁pregnancy
_\
▁DE
▁Tan
▁storm
▁bug
▁explicit
▁Den
▁Plant
▁assist
▁employee
▁le
pass
▁concert
▁Sep
config
▁Son
▁footballer
NN
HR
lot
An
▁studying
▁Perhaps
rt
MD
▁apparently
most
▁hip
▁magic
▁wing
▁Grant
▁Brian
!"
▁Rights
▁perfectly
▁agricultural
▁Access
▁measuring
nate
mas
▁Ocean
▁obviously
▁arch
▁reduces
▁prepare
▁Amazon
meter
▁generic
▁PDF
▁da
▁manually
UR
OP
content
▁Fer
▁Ann
▁Would
ela
▁Organization
▁PCR
▁Senior
ments
▁reaching
▁environments
▁Sin
▁complications
▁elevated
dr
▁Ontario
▁void
any
▁ca
▁inverse
▁phenomenon
▁thick
▁hall
▁Oxford
▁suppose
▁accessible
}]
▁vertex
pan
▁Γ
▁Castle
▁approval
▁pin
▁flash
▁championship
▁Sweden
▁metabolic
▁Os
▁Future
▁Update
▁Small
▁Still
▁abundance
din
▁weapons
▁acids
▁Moon
▁var
▁Card
▁weekend
dfrac
▁Nick
▁routine
▁Para
▁enemy
▁officially
▁losses
she
▁Born
▁Mont
▁reveal
BI
▁soul
▁Nor
▁Nations
ato
▁Miller
▁superior
▁:=
▁consequence
Time
▁walking
cept
▁mod
▁insulin
▁Again
ope
▁awards
▁stick
▁thereby
oke
▁plain
TR
▁Arthur
▁aims
normal
▁yields
▁discrete
▁snow
▁mail
draw
▁Edit
current
▁execution
ali
▁difficulty
▁deliver
▁knows
root
▁herself
▁pointed
▁comparable
▁URL
▁rating
▁temple
▁perceived
▁Atlantic
▁establishment
▁Trade
▁absorption
▁totally
▁assets
▁Suppose
▁profiles
▁ε
▁markers
▁Golden
▁&=
▁PI
▁computing
▁Fund
▁partners
anti
▁mirror
BD
▁infected
▁matching
▁Current
ibility
▁graduated
▁Prior
mode
▁tumors
▁matters
▁Highway
▁gear
▁titles
▁carrying
▁somewhere
▁partially
▁pulse
▁Wild
hood
▁Bible
▁races
git
▁Channel
▁strip
▁Sta
▁risks
▁drawing
▁Philadelphia
olo
▁substrate
IS
▁scales
cer
▁mutation
▁Has
▁lens
▁psychological
gg
▁Alex
▁Language
▁moral
▁Fair
▁justice
PL
▁fund
▁Story
▁evening
▁dealing
uc
▁solo
▁pan
▁cohort
▁Volume
▁deviation
▁Pop
fo
▁jump
$?
count
tau
▁photos
▁missed
▁attend
ו
▁kinds
▁Mid
▁conservation
▁OK
▁Ref
▁Ross
)$,
▁dust
▁confused
▁Anna
Ch
▁Kitt
ox
▁roughly
ria
▁Del
▁minister
▁birds
▁mild
media
▁Sri
▁corporate
hol
▁accordance
IV
▁Five
▁Search
St
▁HP
▁heavily
▁boat
▁returning
iation
ister
gro
rant
▁bike
nar
▁Say
▁quantitative
▁sport
▁Cambridge
▁SU
▁Spring
▁activated
▁targeted
▁contents
▁wheel
ore
▁Nevertheless
▁sought
▁recognize
▁considerable
▁Ok
uring
▁Off
▁Box
▁painting
font
▁recommendations
▁Bor
▁ongoing
▁Za
▁intake
▁geo
OM
▁CPU
▁affects
rick
MM
▁realized
▁attempted
▁guidance
▁challenging
▁anxiety
▁trace
lang
▁occurrence
String
▁derive
▁ranging
▁taste
▁serial
▁attributed
jan
trans
","
к
wide
▁dangerous
▁instruments
▁Sen
▁consisted
▁Pass
▁exhibited
▁str
▁Anderson
▁atmosphere
▁pseudo
active
▁MO
▁entries
▁Collection
▁kidney
▁Feb
▁mo
▁Mod
▁SM
aire
▁completion
▁imagine
▁competitive
▁Tr
▁Je
▁waves
▁§
▁engineer
▁involve
σ
▁surfaces
▁Dark
▁trigger
▁abstract
▁regulatory
▁Form
▁packages
▁scoring
logy
▁trading
▁hosted
▁visited
▁sessions
fl
RC
▁entitled
NP
▁applies
image
oz
▁artificial
ency
DD
▁commands
▁saved
▁symmetric
▁steam
▁dates
px
▁Cy
▁Ze
ming
PP
▁horizontal
т
▁sharp
▁excluded
▁Production
lig
▁accident
"|
▁anywhere
▁grant
▁addressed
ake
iva
▁knowing
▁randomly
▁ride
▁finds
geq
FC
▁nerve
▁Performance
▁SS
▁Action
▁discovery
aj
MT
τ
▁theories
stein
▁Fu
▁induce
▁Ci
▁Americans
▁kick
real
▁Winter
▁precision
▁Between
stat
▁Khan
▁incorporated
▁Thursday
▁Was
▁museum
axis
▁Singapore
oni
▁motivation
▁transaction
▁Math
▁colors
File
▁probe
▁Sol
bat
▁correction
▁independently
▁decreases
▁Select
ook
▁>>
▁Bad
▁Lin
}$,
▁lesions
▁Gallery
RNA
▁bed
hill
▁complement
▁injuries
▁Fri
▁laptop
cia
▁Works
▁Ham
eau
SU
rel
ρ
{(
▁Students
ré
▁IT
LM
▁equilibrium
▁forget
▁rat
▁span
▁gravity
▁Having
▁meat
▁Bus
▁solving
ova
}=\
▁yards
▁Ste
▁vertices
▁hydro
▁precisely
cor
▁interventions
▁owners
▁vice
▁Computer
▁skill
▁designated
▁independence
web
▁imp
▁passes
▁Regional
▁Father
};
▁turning
▁proven
▁utility
▁diagnosed
▁Bel
▁advantages
▁Overall
▁childhood
TT
▁Sat
month
▁resolve
▁absolutely
logical
▁shorter
▁Statistical
EM
▁Without
▁stores
▁DVD
▁Jacob
▁caught
ree
▁bo
▁ranked
▁filed
▁consumer
▁conversation
▁tape
▁Arm
▁fewer
▁commitment
▁Professional
▁addresses
▁engaged
pr
foot
▁apoptosis
▁paragraph
▁validation
▁ν
▁composite
ili
▁submitted
ill
▁Hope
fish
▁spending
▁Char
▁homes
▁bin
▁wins
▁illegal
▁explains
▁choices
verse
ement
▁cycles
▁Township
▁sa
▁Blood
▁selling
▁Sur
▁varying
arrow
▁Matthew
lop
▁duty
▁automatic
tens
stra
▁Comment
▁Military
▁Historic
▁patent
▁slowly
▁appearances
▁graduate
▁reflection
pet
▁CEO
▁Dam
▁bigger
▁signature
▁Magazine
▁Ol
rank
ically
cul
▁fusion
▁updates
▁faced
pers
▁tensor
▁regarded
▁scheduled
▁generating
▁survive
▁personnel
RD
EN
▁Cl
▁prize
▁metabolism
▁tables
▁kinase
▁Jordan
load
▁ocean
▁Ur
▁separately
tam
weight
▁tension
▁prevention
▁crowd
▁Vietnam
▁invariant
▁PR
ech
mediated
▁UV
▁directions
prop
▁Exchange
sis
▁professionals
▁champion
▁vital
▁η
▁satisfy
▁provider
▁excess
▁Guard
▁dogs
▁Pu
▁arts
▁Software
▁vi
▁strange
▁epi
▁guy
▁Level
RF
LD
▁movements
▁BA
▁Stock
▁seeking
▁promising
▁Gas
▁illness
▁philosophy
▁determination
▁Java
$-
▁scan
▁intervals
▁layout
▁reviewed
▁ma
▁°
▁Plot
input
So
ail
two
▁Download
▁cache
▁Watch
▁finance
▁sweet
▁Rob
uf
▁Vice
▁norm
▁suffer
onic
 
▁mini
▁appreciate
▁keyboard
▁opposition
df
ean
anda
ct
▁appeal
▁sheet
▁Arab
▁sight
▁cardiac
▁Sound
▁Culture
▁chat
▁burden
ua
▁banks
Ca
▁facing
▁Rev
ket
▁tip
▁trivial
zer
▁Junior
cin
version
▁tries
Net
▁ER
DH
▁recover
▁wondering
▁neck
article
number
}}{
cp
▁pitch
▁festival
▁mixing
▁reputation
▁permission
▁regulations
▁Medal
▁engagement
▁und
ites
▁Foreign
▁Wednesday
layer
ref
▁Egypt
gue
▁improvements
▁argue
▁kit
▁scattering
▁deaths
▁Swedish
mL
NG
▁patch
oul
▁innovation
▁SQL
▁willing
▁throw
▁happening
positive
▁mL
NT
ori
PE
▁fi
linear
▁seats
▁Iron
FP
▁Article
flow
▁constraint
▁computational
▁residual
▁connecting
BB
▁performances
▁lay
gre
▁Map
▁shoot
▁boost
▁governor
▁broke
▁spiritual
nia
▁LED
▁scalar
▁dream
▁True
cus
▁fiction
▁HR
ME
▁cutting
ENT
▁worst
▁Memorial
▁knee
▁CS
aba
bury
▁Ford
▁Student
▁Ros
▁powder
▁admission
▁degradation
▁giant
VI
▁Ob
cis
kh
▁em
▁Earl
sol
vy
▁sit
▁VI
▁accompanied
▁removing
own
▁Square
▁falls
BL
ele
ush
▁cultures
▁datasets
▁Regiment
▁Yet
▁Sim
▁lake
ux
▁Em
▁Allen
▁boys
▁Hy
▁centers
▁ion
who
izer
▁Albert
LR
▁providers
▁answered
▁modules
▁arc
д
▁Apr
aff
▁Dave
▁opera
west
▁renamed
ui
Delta
Value
▁CF
▁grand
▁Dream
adi
▁bomb
▁Fall
▁arrest
▁reliability
▁breaking
▁adapt
lines
▁tower
track
▁temporary
▁crash
late
▁determining
▁admitted
▁minimize
bas
gas
▁sorry
▁Walter
▁Common
▁assumptions
▁naturally
ET
first
▁Similar
model
rk
cf
▁Gal
▁stimulation
▁blow
▁accumulation
▁Garden
info
▁clubs
▁describing
▁retirement
▁DO
RM
aya
▁hundreds
nal
▁respiratory
▁Besides
els
▁poll
▁coupled
▁Cur
▁briefly
▁Mini
▁Tuesday
SR
width
▁Description
▁situated
▁highway
rated
▁suffering
▁competed
hard
▁boundaries
dale
iel
its
▁maintaining
hole
▁sending
▁facilitate
▁residence
▁gradually
▁chi
inger
▁Colorado
▁mutant
▁designs
▁agencies
▁Stadium
oh
▁Kal
▁adapted
CE
▁Meanwhile
cycl
▁worry
▁Cape
▁crack
qua
▁readers
▁ill
▁creates
▁unclear
▁Anne
▁certificate
▁ME
={
▁handling
rum
▁transportation
▁vol
▁&&
take
fire
▁sat
▁Clark
▁brings
uma
▁ON
▁dense
▁Gor
▁comp
fill
▁Additional
▁tracking
▁stuck
▁discharge
plane
▁resonance
▁Monte
▁warning
▁beta
▁overcome
▁Conclusion
▁fails
▁hypo
▁Mexican
▁Village
▁strategic
ester
▁wireless
▁adopt
sey
▁Pur
▁Kevin
treated
▁captain
▁rows
▁Arch
▁faculty
▁platforms
▁conservative
▁fee
▁Cancer
▁в
▁Within
▁checking
▁proposal
ics
▁sc
▁Philip
▁Emperor
away
▁baseball
sive
▁equipped
▁parish
▁FOR
▁codes
ening
▁electricity
ear
DI
▁Hor
bed
itz
▁mathematics
▁Ger
pen
▁mile
▁FM
▁emphasis
▁Patrick
DT
▁receiver
UN
fall
▁implications
▁entity
fully
just
").
м
▁Child
bridge
ensis
domain
▁entering
▁carefully
rev
▁smoking
▁Clinical
▁renal
▁Race
made
▁engage
▁Reg
▁Pra
▁proportional
▁spell
▁nonlinear
▁refused
▁qualified
alt
▁lab
vol
▁speaker
bel
▁Process
%).
▁Tokyo
▁severity
▁acceptable
▁buried
card
±
tte
▁Minnesota
▁scenarios
▁sustainable
▁capabilities
▁Jews
ila
▁factory
▁beneficial
▁suit
▁orbit
▁phases
▁interviews
mal
▁suggestions
▁equally
week
▁Upon
ML
tom
▁embedded
▁elsewhere
▁Conclusions
▁encourage
▁communicate
▁Bla
▁telling
▁Jeff
RI
▁Need
▁forming
▁Dead
▁grain
▁leaf
▁registration
bert
▁theatre
▁receptors
LY
▁miR
FM
▁que
til
▁pen
▁somehow
▁flows
▁SF
▁damaged
▁Hal
GE
▁gel
)^{
▁Tax
▁specify
▁gate
▁Python
▁Kra
▁varied
▁Return
fu
▁Phil
gent
▁oldest
bur
pos
▁restrictions
▁administered
▁translated
▁strike
▁margin
▁Daily
▁loved
א
▁barrier
▁Lie
▁Currently
▁Challenge
Omega
▁identifying
▁reconstruction
serv
▁lifetime
LL
Bbb
▁Farm
▁argued
zu
▁membership
lat
▁onset
stant
ved
▁adjusted
▁rarely
▁trends
▁Very
gr
▁bringing
▁Independent
▁Bull
▁Register
▁appreciated
▁incubated
▁heating
▁MI
▁Dun
▁publications
▁hash
▁reads
▁IS
▁harm
cite
▁methodology
▁Ly
▁counts
▁Arizona
rid
ight
▁SR
vel
▁arrival
Ba
▁arrested
BR
▁operational
sta
▁Android
▁valve
▁Au
▁Temple
▁Economic
▁hook
hour
▁Look
▁partnership
▁Kan
▁Sorry
nc
Bo
▁respondents
▁Twitter
▁reveals
▁invited
▁Cook
▁keys
mol
▁districts
ú
Un
On
▁vitamin
dots
▁Start
LO
▁satellite
▁plates
▁Yo
▁Sc
▁calcium
▁replacing
other
▁difficulties
▁Muslim
▁hits
ending
▁reply
▁antenna
▁marine
▁Cre
▁Ukraine
▁pipe
▁flying
▁projection
ign
▁shooting
▁LB
▁goods
sion
mir
▁focuses
▁si
▁Kansas
▁commission
esh
▁laid
▁teach
▁Comments
▁destination
ancy
▁TR
▁console
lac
▁router
lee
▁legislation
▁unlikely
js
▁id
burn
▁entrance
▁alignment
▁mistake
▁blind
true
lum
▁amazing
chen
▁header
▁shouldn
put
iso
▁Euro
▁AB
▁clarify
▁crossing
▁discover
Is
▁lawyer
sia
▁coffee
person
▁marker
▁Six
я
▁likelihood
▁Self
▁Fo
▁requests
TER
▁($
▁Motor
worth
▁Anthony
▁Word
▁universities
lab
▁compete
▁guarantee
▁belief
▁Oregon
show
▁Mission
▁titled
▁referring
▁eating
far
▁tight
▁variability
▁Diego
▁viewed
▁Indiana
▁rice
▁vacuum
▁Mrs
vision
▁Moore
▁Wisconsin
pu
▁atoms
▁alter
▁vast
ón
▁evident
▁slope
▁Agency
check
▁Ryan
▁burn
▁instances
▁Sy
▁dia
▁apt
▁Click
▁Jon
н
▁Bowl
▁Bol
▁AT
▁CL
factor
FL
GC
cycle
ique
▁modification
▁None
)$$
▁eliminate
care
word
▁unusual
▁Primary
aging
▁Hart
▁Dor
▁engines
after
▁Edition
wall
▁loaded
▁tele
▁lift
▁Example
▁weights
▁suggestion
▁Side
▁listen
▁Mag
▁Alan
chin
▁printed
▁mount
▁Der
▁functionality
▁Islamic
▁Israeli
aged
▁modify
uro
▁illustrated
ars
TM
▁Trace
▁Single
ath
▁copper
▁NC
▁Mas
tab
▁attributes
▁essay
▁DR
▁ordinary
▁searching
▁adequate
▁vascular
:\
▁ultra
▁Res
ien
▁CE
HL
▁AL
force
▁Dy
wp
▁Dance
})$
ony
▁Howard
▁paths
wal
tru
itch
▁ethnic
▁poverty
Th
▁occupied
▁Lar
utter
▁diffusion
▁Missouri
▁tunnel
ל
▁servers
▁organisation
GF
▁dating
▁Obama
▁passage
▁Seven
fefefe
▁apps
▁pot
▁computation
EA
▁String
▁ver
▁promoter
▁sitting
▁injured
▁whenever
DB
▁relief
▁topology
atic
vid
▁Reading
ost
OH
▁similarity
lev
uv
▁closure
▁weekly
▁Islam
▁scientists
loc
▁farmers
▁const
play
▁Dragon
nce
▁elevation
▁inhibitor
▁Capital
▁Forum
mean
▁Federation
▁distinction
▁drink
▁Jay
ello
▁compatible
▁Authority
▁meters
▁comedy
▁centuries
▁hosts
▁Switzerland
▁strict
▁Affairs
ao
▁journalist
▁robot
▁bear
▁narrative
Fe
▁Mis
▁Ker
▁residential
▁ABC
▁mask
▁Proposition
▁perception
▁Ter
▁vessels
");
)}{
Fi
ther
▁guard
▁Rad
▁SI
dic
['
▁branches
▁rose
▁ratios
▁restore
ged
▁Girl
▁merely
dot
▁sky
▁twin
▁Houston
Image
▁priority
cup
▁evil
▁peripheral
▁expressions
▁Deep
▁lateral
}^{\
"?
▁subgroup
▁GA
last
ened
▁guys
▁diagonal
fin
▁questionnaire
uda
screen
▁Ana
sson
defined
ska
▁scenes
rag
eu
▁executed
season
▁sensors
front
▁decreasing
▁Error
▁settled
▁ban
▁personality
▁talent
▁lipid
▁encoding
▁segments
▁explored
▁promoting
▁requiring
▁utilized
▁trains
▁Sometimes
▁$|
▁bearing
▁attorney
roll
grade
▁tea
}+
▁Spirit
▁Native
б
aro
▁specimens
▁intellectual
▁Youth
▁associations
▁bits
EST
▁Treatment
▁HA
meta
▁Donald
rea
ocytes
▁satisfied
▁cooling
▁Cam
init
▁Mah
▁brothers
Qu
▁interference
▁rely
lis
▁Fan
▁Pr
AG
ators
arch
▁texture
▁Financial
▁Gordon
wick
)+
▁gr
▁ml
▁suspension
▁Fred
▁provision
▁Biography
▁definitions
▁attribute
▁Travel
▁derivatives
▁tall
▁insight
▁ownership
MI
▁Gaussian
cle
▁watching
');
▁indicator
▁enables
eur
▁spoke
▁carrier
▁classroom
▁insert
HD
▁weapon
но
▁Hamilton
▁Base
▁Sarah
▁Help
▁reflected
▁flexible
ı
enberg
▁revenue
UP
▁Pin
▁visitors
▁capability
▁ear
▁trick
▁Maryland
▁heads
▁Indonesia
▁Reserve
gov
emia
▁similarly
▁craft
▁Samuel
▁editing
▁Med
▁Drive
▁thousand
▁Bon
▁Index
Per
▁dysfunction
▁peer
▁desktop
▁AR
▁Philippines
▁Dog
▁Log
▁processed
stage
▁Unlike
Li
▁highlight
▁Equation
▁convenient
▁instruction
example
author
▁commander
▁interpreted
gun
▁till
▁retain
▁Var
HC
▁circular
▁correspond
▁Manchester
▁empirical
▁emerging
▁Wikipedia
rad
▁Turkish
▁immuno
phase
lia
what
▁shortly
▁racing
▁maximal
stream
▁wet
▁Liberal
▁wealth
phone
eva
▁Norway
Or
▁NA
▁Stage
ches
▁Net
background
▁Mix
Di
▁execute
▁interpret
▁tract
▁NFL
sty
▁computers
▁strictly
rock
▁colleagues
▁paint
▁Application
▁holes
CoV
▁contest
SH
ben
▁Different
wise
▁masses
nik
anna
▁coding
lation
▁Die
▁ϕ
loop
mor
▁Mul
▁Oil
ode
▁pit
GP
▁Limited
▁landing
sized
▁Poly
▁Product
▁Wolf
lands
▁possession
ras
svg
▁reaches
▁exhibition
}(\
▁miss
ges
rian
gle
▁Studio
ante
▁seeds
▁adjust
▁rooms
▁emissions
▁attitude
▁sixth
▁affecting
▁polar
▁ignore
mate
white
▁denotes
▁Wind
▁teeth
▁underwent
▁impacts
▁tr
▁Labour
▁sufficiently
cam
▁Episode
▁Television
----------------
negative
▁login
▁fed
▁Bat
eli
ION
doi
elo
▁vessel
gene
There
▁Ron
▁dollars
AN
▁GR
▁junction
▁choosing
rule
store
▁su
▁focusing
▁Moscow
ldots
▁χ
▁Count
▁Austria
▁writers
▁reward
▁Greece
▁Mat
▁marks
▁consumers
▁meetings
▁shut
▁Fi
mond
▁smoke
▁friendly
▁alpha
▁admin
▁cheap
▁belonging
▁eligible
nel
▁movies
▁Harris
▁combinations
ition
▁Pope
vor
▁Nar
▁mineral
▁distinguish
round
▁careful
static
▁documented
▁Version
▁offset
▁timing
▁monthly
cel
▁Assistant
▁innovative
▁posterior
ε
CF
”,
util
▁rejected
▁mounted
langle
▁entropy
▁Dean
▁symbols
Br
▁lo
▁luck
▁faces
MF
▁validity
▁offices
▁painter
▁satisfies
▁cr
▁Abstract
bach
▁outbreak
▁destroy
▁feeding
▁joining
▁Ang
▁volumes
each
▁arise
▁altered
▁behaviors
▁Row
▁controlling
▁Text
▁€
▁picked
▁GC
▁visits
▁switching
▁Melbourne
▁disaster
▁mesh
▁Classic
▁intention
▁Title
▁Mur
▁Wil
▁Content
▁Mother
▁Chairman
▁Gun
▁crop
ema
▁decomposition
▁sphere
▁Recently
▁Met
▁Douglas
▁royal
▁Keep
▁Revolution
▁Iraq
▁succeeded
ago
▁Technical
▁indicators
▁honour
▁managing
▁belong
▁poetry
▁documentary
▁Front
▁satisfaction
▁GB
▁demands
▁occurring
▁predictions
▁valley
tree
▁Mobile
green
▁wider
gor
▁Squadron
shell
`.
▁cur
▁Nigeria
EF
▁Kit
▁albums
Bar
edit
▁AU
eon
▁inform
▁slight
▁geometric
zero
▁Interestingly
ego
▁flood
▁attacked
▁Sil
▁Wang
▁Block
▁combine
▁surprise
▁Large
▁CM
▁requested
▁feels
▁collapse
▁recovered
bot
▁continuing
▁danger
ral
▁integrate
tha
▁deleted
č
▁galaxies
dra
▁verb
▁hide
▁synthetic
▁Iowa
▁plug
awn
▁developers
▁isolation
▁collective
NET
▁fought
▁bag
▁voting
▁labels
▁Spacewatch
nis
▁falling
EX
eck
▁voted
▁strings
▁fitting
Go
wo
▁suicide
▁marginal
θ
bre
▁widespread
▁PRO
Ar
▁overlap
▁Bureau
IE
▁habitat
▁char
associated
▁Environmental
▁racial
century
▁guns
nn
▁topological
▁submit
ult
▁po
▁comfortable
▁font
▁nominated
*}
jar
▁industries
fit
▁molecule
▁gift
▁Lang
▁Political
WA
ended
▁tough
▁Senator
▁scaling
▁hospitals
▁Bush
▁drinking
▁personally
▁Staff
▁rescue
▁Mol
default
▁Defense
▁Private
▁с
second
module
▁Tree
▁Kentucky
bor
quin
▁Ji
eller
▁bonus
▁confusion
▁belongs
bon
ulated
HE
▁screw
▁Disease
▁`\
spect
▁Magic
▁pack
▁Len
▁tips
View
topic
▁reserve
▁drums
▁Release
▁Construction
▁analytical
▁quasi
How
rill
Object
▁actors
otic
▁literary
Lo
▁hate
▁physiological
maker
blue
▁quote
▁Print
cular
neg
▁Had
▁wonderful
▁cook
itter
▁detector
▁Come
▁reporter
Big
hl
▁ξ
ă
▁Tennessee
▁LC
She
▁outdoor
ident
▁NS
з
ern
▁ROS
ison
▁Notable
▁displacement
▁generator
LI
▁Definition
▁occupation
▁brick
▁deformation
▁Judge
being
▁Ah
▁peri
▁Swiss
▁Intel
RB
▁meets
▁nations
include
pal
▁equality
MR
▁Gra
sie
txt
▁sodium
▁NF
install
▁feelings
}_{
▁PhD
▁profit
▁varies
▁abilities
▁SW
▁imply
▁towns
mount
▁graphs
▁Alice
µ
▁icon
▁targeting
▁neo
▁Express
OX
▁rising
▁staining
tron
▁∂
▁moments
ا
▁constantly
duct
▁Published
▁Disney
error
▁pregnant
lash
▁steady
etta
▁convex
▁blend
▁Des
▁victims
▁Entertainment
▁Double
Car
▁tropical
▁comic
▁closing
▁inhibitors
▁sequencing
▁advertising
▁bundle
aunt
▁pulmonary
▁render
target
▁routes
▁prop
[]
▁resolved
pot
▁restaurant
▁Morgan
▁Account
▁Fisher
▁relay
▁abandoned
▁formulation
▁fleet
▁acceleration
ω
agh
▁relating
▁starring
pad
aku
uz
▁indices
▁Malaysia
▁cited
▁hurt
▁Safety
)|
▁electrons
▁ranges
▁formerly
iii
gh
▁Eu
▁buying
▁residues
▁unlike
▁emerged
▁expectations
▁protest
▁castle
tl
š
▁utilize
had
operative
Na
▁doses
▁enhancement
TB
":"
▁Method
▁angular
▁toxic
▁protective
▁Norwegian
▁transformed
ridge
▁"$
Get
▁roads
▁Specifically
▁Juan
▁DNS
▁clause
▁fees
mg
▁tolerance
▁Sel
▁inputs
}}\
lysis
▁arrangement
▁Jane
▁Trail
▁Geo
▁approximate
uli
▁defining
▁whilst
▁excited
▁nitrogen
▁stood
▁elementary
▁WT
▁SL
▁$[
ination
▁mag
analysis
▁firms
▁encounter
▁Bas
▁compression
▁Mus
about
wave
▁paying
▁dr
▁simulated
▁Meta
hum
▁bird
▁Brand
▁Tech
hai
▁participant
ough
▁metres
▁Create
▁Being
▁carcinoma
▁sons
▁wound
ifying
▁displays
▁facts
▁dev
▁publishing
III
Gamma
▁struggle
shot
ines
▁asks
▁lyrics
▁enjoyed
▁seriously
John
▁Constitution
NE
▁supplies
▁Materials
▁drives
▁compliance
[\
▁generalized
▁Mayor
▁taxes
▁merged
▁Baron
▁mar
▁trap
▁Turn
▁assignment
▁Antonio
angle
▁SH
▁chip
▁Hollywood
▁substitution
▁hero
▁Las
▁wearing
▁dominated
ota
bul
▁compensation
▁headquarters
▁Shin
bib
▁Rio
▁plenty
▁FL
radi
▁Player
▁TB
rio
▁peaks
dict
nom
▁substitute
lf
▁destruction
▁chest
▁ψ
▁grey
▁Nazi
bol
▁alternate
▁proceed
Pi
▁Cer
▁Cloud
▁positively
▁Contact
shire
▁Bruce
▁Plus
▁chairman
city
▁jet
▁Core
▁fluorescence
nch
▁EM
▁intense
▁restriction
▁afford
▁spec
▁retained
!)
▁Mun
▁stating
kov
▁musician
▁Tra
mos
▁alive
awa
▁schemes
▁Writing
▁systemic
▁consistently
▁exponential
rain
▁Ever
▁Λ
documentclass
pol
ific
▁LP
▁twelve
vas
▁amongst
▁substance
▁Roger
▁libraries
▁obesity
aud
▁Hell
▁Store
▁slot
▁attractive
equiv
▁arranged
▁disability
▁Gil
ić
▁quantities
speed
▁Wing
▁cone
Sa
▁algebraic
▁bars
▁criticism
▁villages
▁triple
gin
▁ease
▁Scientific
▁aggressive
Si
▁Thu
ATION
▁bronze
▁Color
▁visiting
uke
▁progressive
▁qualitative
▁accurately
cdots
▁Recent
▁shear
▁enzymes
zon
▁Industry
▁cord
▁lifestyle
▁Singh
▁Lincoln
▁Credit
▁appointment
▁objectives
SF
▁cardiovascular
▁Russell
▁jurisdiction
▁ruled
dies
▁plugin
▁traits
▁fr
▁logical
▁saving
cum
mission
Item
▁Cro
fix
cd
▁acoustic
bio
▁mayor
VM
▁fishing
yne
ander
▁Lieutenant
▁seal
▁Peace
▁passenger
▁meaningful
sley
▁Frederick
abad
▁Wal
▁penalty
▁Lab
▁PT
ald
▁Ren
▁Les
▁arrive
HP
▁earn
▁consensus
▁chemotherapy
▁Walker
▁Jason
▁abnormal
▁Complete
▁cooperation
▁col
hom
▁Kelly
▁verified
è
▁Miami
pid
▁squad
▁clip
▁hill
Key
▁operates
▁Advanced
tine
▁Tam
▁divide
unit
▁Pol
than
▁Much
▁sur
▁integrity
▁Angel
▁gl
▁ages
▁designer
▁flowers
live
}%
▁Welcome
ito
yu
▁Sk
▁appearing
▁correlations
▁privacy
▁preference
▁conditional
▁oxide
ality
RL
rist
public
▁Kin
▁Kam
ulator
ND
edu
▁DA
▁beach
▁Buck
▁DS
à
▁Hunt
duc
ides
▁Il
▁Visit
▁god
proc
▁communications
▁container
kill
▁singing
▁architect
▁grass
▁coli
ī
▁Denmark
▁complexes
cas
▁Alabama
▁anymore
▁restored
BT
▁Fast
▁Lower
▁fitted
▁maternal
▁ES
▁differently
▁incorrect
IST
▁Tag
▁legs
▁sectors
▁bishop
▁logo
▁Socorro
human
▁bath
▁moon
▁speakers
▁Czech
▁expertise
▁drain
▁finger
▁beauty
▁triangle
▁Urban
▁influences
▁Lan
election
▁themes
▁Tower
▁Reference
▁scholars
▁Raj
▁writes
)]
Se
▁disabled
▁protocols
TG
une
control
▁periodic
▁Whether
▁Transport
▁Pad
▁ticket
▁demographic
▁WA
▁Battalion
▁graphics
▁mature
▁Places
write
▁insights
▁worship
AST
▁breed
▁YouTube
▁mitochondrial
stock
▁favour
cip
▁Orchestra
hin
▁representations
▁Kh
=(
='
▁gut
mis
fs
dh
▁sentences
▁chicken
lem
▁contributing
▁websites
▁Mind
trop
▁deck
▁Girls
▁AF
▁smallest
▁batch
▁PE
genic
▁Practice
ters
wikipedia
▁denied
▁Ship
thi
jpg
▁Shu
▁Visual
▁LINEAR
▁grounds
▁armed
▁Metal
▁loose
black
NF
▁assault
gl
▁Hamiltonian
▁Theory
RN
LF
▁Neuro
▁breaks
▁transit
▁angles
▁SARS
▁Rat
▁Drug
ACE
El
zan
▁ISO
▁agriculture
κ
▁physically
▁printing
▁Hay
▁literally
▁reign
pop
odo
▁earliest
▁defines
▁delayed
▁developer
▁react
▁Roy
▁conceptual
risk
▁Quality
▁CV
▁dental
▁junior
▁Lane
▁TM
▁medication
▁exclusively
▁convention
▁Pay
VA
▁exclusive
sel
▁passive
▁phenomena
▁Rep
▁vaccination
ectomy
▁Editor
▁ceremony
▁hockey
▁associate
▁Glen
▁Taiwan
One
▁ensemble
▁victim
▁exploration
boy
▁anchor
ifier
CG
▁Protection
ido
▁Convention
cker
▁vulnerable
▁judgment
rit
▁Bou
▁Louisiana
▁tied
▁Christopher
tmp
▁duties
▁Ward
▁possibilities
▁tackle
UM
▁realistic
dec
▁vibration
▁ski
▁overview
▁assign
make
▁Bird
▁Smart
ometric
▁Know
▁Course
▁Buy
▁std
▁adds
▁forum
gui
▁limitation
▁embedding
oy
▁Original
▁IC
asi
▁artery
▁preserved
▁actively
▁reasoning
▁retail
shift
▁Ring
\|
GR
morph
▁Conservative
▁comfort
▁hunt
png
▁hack
▁keeps
quality
▁Mars
UT
azi
▁Consequently
▁pixel
▁physician
▁uptake
member
▁MT
▁PO
▁adaptive
▁encountered
▁labeled
▁streets
vir
Don
▁shoulder
▁accounting
▁Bear
▁eggs
▁Princess
▁elderly
▁distances
shaped
append
characterization
▁healing
▁Nature
chu
▁forecast
▁entities
arian
▁preserve
ude
▁excessive
▁blocked
▁antigen
р
neq
hold
▁mess
▁Room
▁mobility
chy
bank
ld
▁liberal
anta
▁rod
onia
▁ip
▁popularity
▁shield
▁chains
hon
call
▁defects
rot
ב
doc
▁productivity
▁boxes
▁limb
▁continuously
▁educated
▁Cr
▁occasionally
ulate
г
▁partly
▁prototype
dc
▁colon
▁fired
▁pipeline
▁Greg
▁consist
▁alien
▁Knight
▁honest
▁normalized
eman
▁Portuguese
sburg
derived
Star
tone
▁encouraged
▁Argentina
itive
▁notably
▁boss
▁proton
dol
▁washed
▁sick
▁RA
▁Ce
▁Ye
▁specificity
▁morphology
▁harmonic
May
▁Custom
"),
▁Oak
▁vocal
equation
▁Honor
▁Annual
▁Queensland
▁Infantry
▁Opera
▁Originally
▁labour
▁peptide
▁Brazilian
▁cylinder
▁spoken
▁Grade
▁den
▁harder
}+\
grad
ivo
▁Fourier
reference
▁BE
ether
▁Hills
General
▁ok
▁Tro
▁Qua
hn
▁participating
By
GO
▁alert
▁straightforward
edge
watch
▁analog
▁bonds
▁Kir
reg
▁combining
▁controversial
format
▁highlighted
terminal
acy
▁pa
ū
VR
▁elaborate
▁flavor
para
▁Rural
▁transactions
▁prospective
▁Late
▁critics
▁initiated
AI
▁Operation
▁survived
▁tags
filter
▁theater
▁Brigade
▁Bru
▁Jam
▁consistency
▁wheat
▁impression
▁RAM
▁Snow
▁modifications
▁Sign
)?
▁Agreement
▁Direct
prov
▁bind
uit
▁plots
▁ED
got
▁Jar
▁shadow
▁inhabitants
▁discussions
▁radial
▁suddenly
▁Ky
▁animation
▁Gary
▁panels
OA
▁trauma
▁existed
▁entertainment
eil
▁pole
▁Baker
PG
▁competing
approx
▁Together
▁Shah
varphi
▁hang
й
▁Gro
eno
▁Margaret
▁revolution
▁el
ground
▁tiny
▁config
▁Leader
▁Ty
ogen
tive
▁extends
▁breath
has
MU
▁Former
▁restart
▁Physical
▁ho
▁raid
▁Susan
▁listening
▁resident
▁reflects
▁efficiently
▁collision
▁Bangladesh
there
▁Atlanta
HI
▁Census
▁finishing
▁Problem
▁Lemmon
▁Supplementary
Com
▁Working
▁inflation
lm
▁Villa
ces
▁texts
▁Oklahoma
inch
▁acquire
▁Andy
▁replication
▁beliefs
▁Secret
ogenic
م
▁conclusions
▁criterion
▁Kon
▁legend
metric
▁Thompson
turn
▁Years
п
▁belt
ι
ologist
▁transient
Class
▁PBS
▁truck
At
▁behalf
Not
UC
▁Industrial
rous
▁Newton
▁singular
▁talks
cover
▁exam
▁odds
UD
▁DB
etti
▁frames
shan
tty
▁calendar
▁Steel
▁Function
▁Cleveland
▁placement
▁hired
lit
nor
ille
▁heritage
▁ML
▁Host
▁preventing
▁Present
owned
share
▁deeper
oper
▁Graham
▁dialogue
▁Dick
▁Σ
▁publicly
▁pollution
▁localization
▁Sec
▁specialized
▁Voice
▁Fame
four
LT
▁Chamber
▁Morris
▁Pla
“
▁Blog
ר
▁Zone
onym
▁energies
▁Karl
▁Notice
erman
▁Cost
));
▁Fra
מ
zz
▁orbital
UL
BE
▁\{
▁accused
▁distinguished
▁canonical
▁leak
Ab
▁tie
▁integers
▁benchmark
▁metrics
▁VM
event
▁behavioral
Ka
▁Tags
▁wake
uni
ли
itt
▁casino
▁outstanding
▁Fre
▁dys
Of
posit
▁Portugal
▁tends
▁permit
iness
alis
Mon
▁technological
▁fabric
rah
▁ranking
▁hint
ways
▁Hunter
▁golf
▁impairment
▁folk
▁investigations
pho
▁Individual
′
▁nursing
▁lights
..."
▁churches
▁shopping
▁Leave
▁photon
▁DJ
Set
((
▁adoption
▁dam
▁doctors
leg
▁fracture
▁pulled
dle
dent
▁bunch
tile
ike
▁investors
▁polymer
▁Lawrence
bc
▁demo
▁wedding
CB
▁Mean
▁permitted
illo
▁Pick
▁FR
ext
tric
▁recurrence
hara
▁subjected
▁enrolled
▁portfolio
▁phosphorylation
▁Es
berry
▁Carr
▁kitchen
lag
▁Marie
▁Environment
▁orchestra
▁Luc
sus
▁Imperial
▁Tre
▁attempting
rr
▁Actually
binom
▁Effect
then
▁passengers
▁$\{
▁GO
▁oxidative
▁Barr
api
▁islands
parent
▁enforcement
mul
▁foods
param
▁Electric
▁Finance
▁curriculum
▁antioxidant
▁resistor
▁remainder
nas
▁managers
▁Delhi
™
▁Austin
dog
▁Mississippi
▁implementing
▁Φ
▁defect
▁Chart
▁proxy
▁Lock
Sh
▁quadratic
lov
▁Geography
object
▁Appendix
▁commissioned
▁allocation
▁wavelength
Script
Map
▁kinetic
▁Belgium
auto
▁phenotype
▁randomized
heim
▁hub
▁GM
▁inspection
gli
▁trail
▁Higher
Model
▁everywhere
subset
oe
pine
▁rated
▁organize
▁Boys
▁kingdom
▁excitation
aux
ж
▁noun
▁commit
NR
pmatrix
sheet
▁lap
sample
▁resort
▁toxicity
▁Harvard
▁stadium
▁formally
▁[[
▁regulated
▁extensively
small
▁Kent
▁PL
▁prompt
▁FROM
▁Event
▁filters
GM
▁manifold
▁Otherwise
▁founding
▁automated
▁NP
▁Things
▁styles
▁ions
▁revision
▁basal
dor
▁Rick
▁tone
▁preliminary
hop
󠁧
ced
rib
▁pointing
▁Wright
▁Danish
▁weird
oxy
▁deployment
▁reception
▁Detroit
▁achieving
▁restoration
▁Location
DNA
▁establishing
▁Pal
▁airline
▁jazz
▁atomic
▁Official
mass
▁Seattle
project
▁evaluating
▁limiting
▁Train
▁CON
change
▁ethical
▁Commander
▁Fr
▁demonstrates
▁Utah
▁reset
los
▁Related
▁aired
▁courts
▁poorly
▁fer
▁inspiration
▁closest
tia
xml
▁clustering
ann
pes
▁Luke
roy
boot
▁Alfred
▁Ukrainian
▁Notes
▁intensive
energy
kel
rine
▁integr
▁ports
SB
▁Alliance
FI
rov
▁python
▁absent
▁promise
▁semantic
▁coating
▁hoping
><
▁Multiple
▁attachment
miss
▁predictive
▁PP
▁Members
▁MR
▁Metro
▁Range
▁Learn
▁coil
▁isolates
cot
ographic
▁Schools
rac
▁Copyright
ç
uka
▁volunteer
TF
span
�
▁curvature
rry
▁surprised
ér
▁tumour
▁tourism
▁downstream
▁Nelson
opt
▁Assessment
▁tap
]).
▁Commonwealth
▁Gulf
▁sole
urb
▁responded
▁comparisons
▁Guy
ש
▁pursue
▁rough
▁Fine
▁flu
ime
DO
MG
▁Bernard
▁initiative
▁solely
▁Kor
Log
chrom
Pre
▁highlights
sville
rey
▁busy
▁assays
lus
profit
▁declare
▁stops
DN
omo
▁coastal
▁forests
▁Animal
update
bird
▁resistant
▁Adams
▁gang
▁Record
▁Horse
select
▁Sport
▁fitness
▁intent
▁nervous
sar
▁Attorney
teen
ה
▁Impact
▁Heat
Can
▁Hur
▁anterior
▁Burn
kit
▁Upper
▁eliminated
▁Zi
cene
▁doors
▁Along
binding
▁Nan
▁Flu
▁AN
▁lessons
▁Stewart
▁Dublin
aze
▁interactive
asa
▁Fat
rod
▁feasible
▁mechanics
▁Kenya
▁wh
▁afternoon
▁genomic
unk
▁GT
▁Heritage
▁governments
▁suspended
▁SN
vic
▁friction
▁fits
▁clinic
▁≈
wind
▁horses
ashi
▁Cra
▁Deputy
▁Hans
▁parking
▁Literature
▁Roll
▁Charlie
▁flexibility
▁Legend
▁recordings
chemical
▁musicians
▁Chen
▁surrounded
wen
dri
sup
▁expectation
▁minority
sil
ре
zh
channel
arr
dem
▁Palace
BO
bie
▁discrimination
thy
ICE
▁matched
died
***
▁orthogonal
RR
ature
▁simpler
▁presidential
▁egg
TOR
hir
cio
▁NE
▁CB
▁Stack
▁Connect
▁Kil
▁Archives
rator
▁contracts
▁sing
▁Orange
▁Looking
▁installing
▁Enterprise
▁ref
▁spike
▁Coach
▁Path
fr
minute
і
tim
▁contrary
▁treating
▁nearest
▁ruling
▁lands
▁franchise
▁microscopy
▁barriers
▁Jonathan
▁obtaining
hall
operatorname
itude
▁Robinson
iko
ø
stead
was
▁cleaning
▁Rod
^*
▁fatty
▁Gray
▁acceptance
▁resist
att
▁hypertension
▁heading
▁bread
figure
▁declined
▁HS
▁licensed
▁intend
▁enterprise
▁hat
▁longitudinal
▁collections
▁Chan
ois
foo
▁rent
▁Dal
▁bra
▁Kennedy
pic
ente
▁Issue
ê
bell
▁galaxy
▁biology
null
▁circulation
▁visa
▁expanding
▁analysed
driven
▁colony
▁cement
▁Hol
▁critic
▁struck
▁atom
usa
▁substantially
Sch
issue
▁sw
▁Century
▁Ice
▁desert
▁Faculty
▁Branch
fect
▁worker
cross
▁chemistry
▁Jimmy
▁pocket
▁afraid
▁evolved
▁reservoir
▁possess
▁poem
▁payments
▁Av
▁spots
▁Norman
inflammatory
▁Ry
VC
▁Victor
CU
▁historian
▁EV
Field
bid
▁holiday
Min
▁Ground
▁athletes
▁posting
▁attending
asse
PCR
▁TA
ë
▁Ay
AV
▁offensive
Sigma
▁cream
Part
pil
PF
comb
loss
ра
▁Left
pack
▁Never
▁postoperative
▁Scale
isa
ched
▁PHP
▁Naval
▁Billboard
avan
▁muscles
[{
▁Participants
▁reject
mates
▁Historical
▁Regarding
lle
▁MRI
▁adjustment
▁viruses
▁Paper
eus
crypt
▁supplied
▁venture
omy
rn
▁pe
Up
xx
▁Crown
▁expressing
▁stayed
▁Labor
GL
▁fl
▁deployed
▁portrait
▁monument
bmatrix
▁RESULTS
μ
xy
▁dietary
▁nucleus
▁Lanka
▁uni
achi
▁sustained
▁Laboratory
▁orange
▁contacts
imi
▁counting
ा
aught
▁databases
▁mutual
▁Uni
▁filling
▁considerably
▁Commissioner
▁tune
▁photography
camp
▁cavity
▁fur
▁Too
▁sec
very
▁ng
rail
▁telephone
▁depicted
▁Cold
▁Dia
State
▁bid
▁scholarship
▁Py
▁raising
▁ourselves
▁surname
hem
stan
▁ATP
raw
▁Thailand
▁tons
cultural
}^\
overline
ilo
▁headed
▁Sum
▁sta
▁swimming
▁Covid
oop
sight
▁achievement
▁Ap
▁painted
LU
calc
▁PV
▁Woman
▁coll
END
craft
both
▁joy
▁regulate
▁aggregate
▁manufacturers
kins
gri
corn
rb
WR
▁RF
En
▁Phase
η
fra
▁Pel
▁Nation
▁municipal
▁COM
linux
square
chain
ott
▁Prof
▁anniversary
ink
▁Billy
hm
▁dress
apa
▁blank
▁representatives
▁winners
▁copyright
▁charts
▁disable
ied
▁navigation
▁receives
▁opinions
▁Body
▁couples
dash
▁disagree
iri
User
▁signing
ids
▁sail
▁Solar
ote
▁varieties
▁Associate
▁Campbell
▁Maha
▁apartment
▁Risk
CN
▁MM
▁Structure
stop
▁deals
▁presenting
▁Palm
▁float
▁proud
▁compilation
▁Bro
▁rounds
EG
▁Rich
▁token
App
▁discount
▁abroad
▁Sn
▁Flight
query
▁nanoparticles
▁Whit
▁glad
matrix
▁indirect
▁rugby
▁Climate
▁sediment
EV
▁selective
▁Ian
▁celebrate
ule
▁Anton
▁introducing
å
▁lighting
phy
But
lated
▁secretion
Har
▁Days
▁employer
nz
▁temp
AE
wel
▁bounds
▁zones
']
▁Got
ONE
▁<<
▁failing
▁redirect
▁seventh
▁attract
▁Brothers
▁rhythm
▁Cooper
ded
▁Kha
exe
▁Elementary
▁Mann
▁stretch
▁defence
When
▁Baseball
▁gravitational
▁Movement
PN
ked
▁emotions
piece
▁calibration
▁institute
▁Resources
hot
▁fragments
rest
▁и
▁Forces
▁Finland
▁illustrate
▁syntax
▁Basic
▁meter
▁tutorial
▁pixels
▁scanning
▁conserved
▁deletion
▁readily
▁Virtual
UB
▁configured
▁functioning
▁Address
ales
▁Tel
▁attracted
▁optimize
ي
▁†
▁Adult
▁accommodate
GD
amba
say
▁fibers
▁believes
etic
▁relate
ees
▁socio
GN
BF
▁Cole
▁Taking
▁BS
▁releases
▁Size
▁stellar
output
▁Quebec
▁curious
▁κ
▁shipping
▁selecting
▁altitude
▁institutional
▁horizon
Gu
location
▁remarkable
▁bases
▁Saudi
▁demonstration
▁afterwards
limits
▁Dallas
▁mat
▁explaining
▁underground
▁Hat
▁ingredients
▁Champion
▁Task
igo
rust
▁occasion
dist
pri
▁connectivity
▁slip
▁satisfying
▁homogeneous
▁polarization
▁Liverpool
Bu
▁Remark
▁coronavirus
▁cricket
▁pdf
github
▁successor
▁Por
▁characterize
▁Compared
▁Exp
▁BP
▁drag
lc
lies
▁violent
▁cattle
▁Stra
▁upload
!!!
rene
▁Yeah
algebra
▁clothing
poli
▁Wars
▁recommendation
▁everyday
▁defensive
▁sn
▁rid
▁Soul
mination
▁bandwidth
▁priest
▁annually
good
▁ignored
▁additive
▁Az
▁ms
AO
neur
language
▁homo
▁Screen
▁Bri
standard
ía
▁constants
UK
join
▁ensuring
▁currency
pool
▁Robin
▁Montreal
▁Male
▁aside
▁IR
oku
▁optimized
graphic
abs
▁deeply
▁google
‘
▁Sara
▁propagation
yes
Â
▁validated
▁alloy
▁volunteers
δ
odor
▁Kur
▁Artist
▁overnight
RG
▁Franklin
▁Alpha
signed
▁Grey
inder
Element
cost
ame
school
▁bell
alia
▁Neo
▁surveillance
▁USD
▁Epi
iana
▁certified
▁puzzle
▁Sai
▁sync
▁concentrated
IG
▁Jerusalem
▁Communist
»
arc
feld
▁Chair
when
▁Barry
▁genre
▁Representatives
▁steep
▁bottle
family
▁provisions
Ho
▁*/
▁defend
Jo
▁classifier
▁paintings
▁negatively
▁Cemetery
ACT
find
▁Legal
▁Tur
▁stochastic
grams
lap
▁Hz
▁shapes
▁persistent
▁Statistics
aq
▁Communications
▁burning
lect
▁generations
▁intracellular
search
▁calculating
iki
▁forever
▁Face
▁Mai
▁Carter
▁grows
structure
▁fold
▁reserved
▁cooking
Ne
▁tendency
▁Rain
▁Planning
pon
▁audit
▁quiet
▁gray
▁ju
allow
▁mountains
▁indoor
▁Pet
▁behave
▁longest
▁reboot
kk
entry
▁José
▁wooden
Pr
ival
pat
▁companion
▁Experience
zar
▁tetra
▁Cultural
score
mine
Web
anga
▁attitudes
▁celebration
▁Hen
▁Examples
▁stake
eria
yon
▁gay
▁conjunction
▁cousin
bad
▁configurations
▁incomplete
column
▁pad
▁Marc
▁asset
Ga
▁weighted
▁Kings
oti
▁equivalence
admin
▁McG
▁Below
sign
▁queries
▁maximize
▁pronounced
▁debug
tum
▁modulation
apt
cases
▁hormone
▁gross
market
▁Syn
▁breeding
▁Pri
▁Crime
▁Speed
▁à
▁logistic
HF
▁Neu
▁charter
▁conducting
▁bullet
▁Warren
▁Prix
▁convey
▁rec
▁Dev
▁affairs
▁purely
FE
▁dramatic
▁Until
▁emphasize
▁specialist
▁?>
ache
▁Brain
sensitive
▁endothelial
amide
▁Qui
}}$
used
final
▁bull
tail
▁Draft
▁Evans
▁packet
▁Edinburgh
▁Marshall
▁succeed
inus
▁suspected
▁revised
▁departure
▁dimensional
NL
pc
ction
night
▁inches
will
▁funded
▁solvent
▁cortex
PH
Ω
Mi
▁BL
▁Stan
▁Movie
▁Put
▁intrinsic
Exception
▁SV
GT
▁Alaska
FB
▁Benjamin
▁distant
▁gathered
▁Beijing
▁Active
▁Lost
▁carries
▁Ran
▁Starting
▁ratings
gus
▁Living
▁Clean
▁Mountains
▁Share
▁enabling
▁Bond
▁thirty
▁opens
▁Audio
▁syn
▁Murray
ر
▁Want
ionic
ometry
▁completing
▁recruited
▁recipient
voice
▁thy
▁adventure
HT
!”
eq
▁rocket
Add
▁Yang
Text
protein
▁Champions
▁Storm
▁dump
▁lacking
ops
▁cancel
▁instrumental
▁producers
rp
▁Meeting
▁Events
▁uniformly
▁Syria
sys
▁deposit
pher
▁digit
▁placing
izes
▁lb
▁crown
ress
▁Circuit
▁Chemical
▁acknowledge
▁Nova
½
▁inhibited
▁BY
EB
▁dx
▁fatigue
▁fluctuations
forall
▁commune
▁Object
yer
Hu
▁Spec
َ
▁disappear
▁influential
wer
▁Vin
▁burst
IVE
▁sword
dl
▁Experimental
▁statue
▁outputs
▁Agent
graphy
AMP
mun
▁profession
ished
▁Effects
▁Response
▁EE
▁contributes
VO
´
▁printer
logic
▁Mall
▁Sav
▁switched
▁Barbara
▁fragment
mac
▁generates
▁Sho
▁Universal
▁Hai
▁invasive
▁township
lets
▁coincide
▁guests
▁fossil
rap
▁Craig
▁Stanley
▁Academic
▁rings
▁cuts
▁corrected
▁paste
obo
activated
+(
▁probabilities
AGE
imo
▁opponent
▁FI
though
Count
uba
Read
syn
▁Clinton
rai
▁Hindu
nov
NB
{#
hang
akh
▁Connecticut
▁inserted
▁earthquake
▁Nat
▁asymptotic
▁singles
▁basin
▁pushed
▁Johnny
glu
▁spherical
то
▁bold
▁contradiction
▁millions
▁coat
Line
Point
varepsilon
▁Egyptian
▁impressive
\{
FD
▁Milan
▁bay
lk
gation
▁induces
▁HTML
▁merchant
▁batteries
▁deficiency
▁relevance
▁ecological
▁centered
▁outline
▁artistic
▁devoted
phon
hel
cert
▁heaven
▁Cut
▁Critical
▁crops
▁shelter
tero
▁Lor
uous
▁abundant
gia
▁ultimate
smith
oth
▁Sex
▁emerge
een
▁Enter
▁admit
▁backing
▁nurses
▁extending
▁Nothing
▁corn
news
л
▁Commons
▁powered
may
ERS
ider
▁Talk
mil
▁Wu
▁Mak
▁Mitchell
▁begun
▁stamp
story
▁fake
dim
▁riding
▁potent
▁exploit
▁EDIT
▁Cells
▁Physics
cil
SV
▁silent
▁yeast
▁dispersion
▁Style
▁Hockey
▁balanced
ume
▁employ
▁Everything
▁slower
witch
▁Baltimore
[[
▁pr
▁sculpture
bf
▁attach
▁organs
▁Ny
▁deemed
▁moisture
tho
▁Tele
▁transmitted
\,\
iter
holder
▁Zo
▁continuity
▁circles
▁Past
▁gathering
▁enemies
▁cor
▁governance
latex
help
▁exercises
Error
▁ssh
▁GL
▁reactor
▁inhibit
▁Grace
▁swing
▁Wayne
▁Value
▁Complex
NK
▁Lip
▁loud
▁hosting
▁pic
Str
▁regiment
▁Hyper
▁spray
▁loads
▁alleged
ark
film
▁photographs
▁organisms
▁RC
glyc
multi
▁TNF
duce
▁coin
▁analyzing
▁Baby
▁moth
OB
▁Bachelor
▁incubation
▁grammar
▁epithelial
▁indication
moto
ð
▁subjective
▁Boot
lea
▁Fin
▁multiplication
writing
▁threatened
FO
▁Jazz
▁Think
ô
oi
emi
▁secretary
▁stimulus
▁forcing
EO
▁Beck
▁Freedom
▁exponent
["
▁Est
oriented
▁ext
▁subspace
▁publish
▁Gon
▁canal
▁submission
▁Afghanistan
▁Ask
oka
▁Quick
▁exclude
▁vir
▁stimuli
▁tooth
▁thesis
dynamic
Query
GFP
pra
nam
▁Distribution
▁analytic
▁NCAA
imp
▁drift
▁consultation
▁grave
▁mac
culture
▁repeatedly
depth
▁birthday
▁stationary
brew
GG
▁Estate
▁extracts
ht
▁Intelligence
▁simulate
▁publisher
▁wounded
▁neutron
▁polynomials
▁Leon
▁Liu
▁membranes
▁Colonel
▁Simple
φ
▁intelligent
pie
Test
▁blast
▁adhesion
physical
▁Remember
▁Stein
▁Products
▁cave
▁Comparison
▁sensing
▁logs
▁capacitor
▁Role
▁memories
▁suppression
▁Algorithm
▁denoted
fil
▁Tab
▁proposition
mers
docs
▁Hebrew
▁Arena
▁descent
particle
▁addressing
▁Website
▁Kol
▁physicians
▁Birmingham
▁balls
▁radar
▁surveys
Date
▁discipline
▁predominantly
▁Weight
▁Tin
▁Mir
▁celebrated
▁NBA
▁shifted
▁rolling
option
▁Puerto
That
▁Beat
▁Zhang
ALL
▁gains
▁hetero
▁gland
▁Arc
▁Delta
nell
▁Falls
▁Hungarian
▁HMS
▁Pittsburgh
▁hunting
▁upcoming
▁prognosis
osh
▁Remove
▁Arabic
▁forth
▁converges
SN
▁graft
▁Sor
▁undergraduate
▁Rules
lick
▁pose
▁conductor
▁counties
ried
polar
▁voters
Bi
▁Nepal
full
result
sai
BM
▁Mode
▁imposed
▁endo
▁Target
nick
▁utilization
▁Lot
▁Vienna
▁Clear
▁Pala
▁twist
▁Horn
▁oxidation
lover
eni
▁prescription
▁claiming
▁correspondence
▁alarm
▁Generally
▁Eye
²
🇷
▁conflicts
▁cholesterol
bia
▁virtually
▁novels
formed
KI
▁Cas
lug
▁chord
▁Save
▁blocking
tics
sectional
iga
brook
▁Him
his
▁Steven
▁bowl
boat
▁retention
igan
▁initiation
▁noble
Sha
▁unity
▁Mediterranean
▁Tamil
▁Metropolitan
▁performs
▁Item
▁exciting
▁Alt
▁permissions
▁lesion
ч
Service
Ta
▁modelling
▁Welsh
tier
udi
▁Charlotte
race
▁insufficient
▁nose
▁thermo
ups
limit
▁commented
▁Fellow
▁lymph
▁passion
▁Portland
rou
With
ür
▁GDP
▁Excel
Te
▁occasions
▁Et
roid
implies
}\\
▁Inside
▁quotes
▁{{
▁affinity
▁eigenvalues
▁rubber
▁---
lav
▁Chrome
▁Tournament
▁Rec
▁equity
▁Around
▁summarized
▁borders
▁Bass
▁dissolved
▁corruption
▁Arkansas
▁Population
▁gather
▁quit
mart
bil
х
▁preferences
fan
▁Female
google
▁asthma
▁investigating
lane
▁isomorphism
NV
▁citizen
▁Cri
uh
▁aligned
▁Salt
kb
▁ethanol
▁Mine
▁Gran
▁Mari
later
▁witness
lier
▁Chu
▁electrode
▁portal
IX
▁Creative
▁Spin
▁checks
viv
▁broader
▁notification
▁impaired
▁Category
▁merger
▁Summary
▁lemma
▁precursor
▁na
▁cart
▁confusing
organ
ista
▁credits
CV
▁Fun
WD
plot
▁colonial
▁fibre
hydr
▁Money
▁Considering
▁mal
▁tennis
OW
Phi
Vi
pole
▁drought
▁exploring
▁archive
▁designing
gam
▁!=
▁specification
▁legacy
commerce
dell
▁pray
▁inference
▁NT
▁Various
atus
▁Romania
▁Thor
▁Railroad
nk
▁dinner
▁Formula
phys
▁vaccines
▁sink
▁qui
ß
click
▁soccer
▁Wei
▁HE
▁arrangements
they
seq
umi
▁mediated
▁Protein
▁mood
abi
▁Kate
▁determines
▁restrict
▁meal
▁traveling
▁dated
VE
▁welfare
▁pioneer
▁Edge
\}
duction
▁certification
の
▁Yellow
Dis
vector
rab
▁Normal
▁architectural
idi
virus
▁downtown
MSC
▁Random
oro
▁elastic
▁joke
▁compiled
match
▁AA
third
▁bleeding
▁Carlos
▁structured
gua
▁Austrian
▁individually
cock
him
▁exhibits
ichi
▁evolutionary
▁supplement
▁handled
▁prevented
tie
▁Orleans
▁Ottoman
▁Kay
INT
course
▁Springs
▁Trial
▁не
▁diamond
▁scratch
▁Sad
▁Evaluation
▁developmental
▁swap
▁Christians
▁unexpected
▁instructor
▁lying
▁trajectory
▁Cox
▁localized
▁Cover
▁marry
▁jail
▁crimes
resp
ffer
▁Phoenix
bling
▁morphological
ör
▁Democrats
▁Made
▁infants
therapy
▁Hawk
rem
Note
▁instant
posed
▁Fish
▁controversy
izz
cing
▁dialect
▁intact
enti
▁preparing
▁sad
security
ifies
▁Brad
▁workplace
Page
▁transitions
tting
▁UI
▁Economics
▁mentor
▁Anonymous
▁acc
▁Fix
amo
"]
through
▁Berg

▁safely
DER
▁Hungary
▁railroad
▁Rugby
iber
▁cytokines
▁missions
▁CNN
nat
▁ranged
▁charging
:#
▁deposition
▁organizational
▁guilty
▁immigration
▁tobacco
▁EX
▁HC
▁workflow
▁activate
lyn
▁polygon
▁je
▁manifest
▁northeast
▁Ultra
▁Greater
▁recruitment
▁medieval
▁authentication
▁counted
▁accomplish
▁rocks
▁incorporate
▁remind
▁ET
▁cultured
▁paradigm
▁Bag
▁Vancouver
Form
phe
▁violation
▁sponsor
▁Jerry
▁irregular
opa
▁sudden
▁Larry
pit
▁reproduce
since
SW
▁Finding
▁yesterday
pel
▁nucleotide
▁distinctive
▁Joint
▁bore
▁distress
▁Fab
PU
▁mothers
▁Rou
▁optional
▁Fal
▁transverse
NAME
▁PH
▁exceed
▁regards
▁wings
▁Bee
▁shore
▁Michel
▁microbial
▁prayer
▁comparative
▁Follow
Component
▁Score
▁injected
phor
▁creature
drop
▁prostate
rating
▁Assuming
▁cu
▁ranks
▁smile
▁Jose
cra
▁collecting
coming
▁RS
▁considerations
▁rabbit
▁shifts
▁provincial
▁catalyst
▁macrophages
▁fictional
hap
▁comprises
▁extensions
▁viable
▁Swa
false
▁accomplished
wy
▁lengths
▁Wave
▁Commercial
▁confident
▁resigned
comp
▁germ
▁Pierre
▁li
▁cube
tun
▁Mail
▁researcher
▁manipulation
▁Chile
▁intersect
▁Hum
▁plasmid
hoe
vac
olic
▁cabinet
prod
▁expenses
dus
▁Gy
▁Bun
glut
▁threats
▁coronary
▁iteration
dio
▁improves
▁ALL
aut
▁Install
▁ǫ
▁workshop
▁Studios
▁Mg
complete
▁explosion
video
▁Fel
▁metals
▁magnet
▁Won
▁causal
▁pace
sci
otimes
▁spinal
rage
▁NH
▁drops
activity
▁gaps
hou
fur
▁⊂
▁Album
▁HF
sql
cli
create
▁Parker
▁microscope
▁Lim
atur
▁Jin
▁Hau
▁departments
report
▁Glass
▁UTC
▁loans
▁immunity
args
▁bypass
zone
▁assessing
▁sustainability
newcommand
▁Making
tas
Am
▁squares
▁transparent
▁verse
▁Cool
▁stakeholders
icular
▁Collins
▁Shan
▁relaxation
▁processor
kes
▁vegetation
▁susceptibility
▁Minor
▁textbook
▁organisations
و
▁promotes
▁directors
▁graphic
▁surprising
▁brush
▁collaborative
▁LD
▁intestinal
▁flights
▁amateur
sten
▁informal
▁pleasure
OE
address
▁Rule
▁guaranteed
▁Helen
▁Architecture
▁simplify
winning
▁fractions
▁Yan
▁Alternatively
erson
▁envelope
▁neutrino
▁favourite
▁charity
empty
metry
▁precipitation
methyl
▁***
▁на
▁Eli
▁unstable
ž
▁Brooklyn
▁warrant
▁manufactured
riot
▁Anyway
OUT
▁Carlo
▁Communication
▁tech
▁configure
▁viewing
▁LLC
vit
▁chromosome
access
▁SB
Cr
bud
Inter
い
outs
ín
▁instability
▁creator
▁arrow
▁LO
building
aceae
central
cro
▁cyclic
▁programmes
aa
bee
▁Gill
▁Shop
▁Cathedral
▁announcement
mmer
written
prime
▁halo
▁Nice
())
ambi
▁qualify
▁quoted
▁synthesized
▁Operations
tweet
▁Maine
▁\$
▁aging
your
frequency
yi
▁somebody
trial
child
▁nurse
▁nutrition
▁Gabriel
▁Keith
▁Songs
▁Join
▁Job
▁dispute
omi
sided
▁quark
▁по
regulated
tran
▁Something
ete
▁mol
encies
▁soldier
▁unfortunately
efficient
▁brake
lytic
▁collagen
▁chances
▁linguistic
▁watched
python
▁mainstream
▁IgG
▁summarize
▁horror
▁subsets
▁prisoners
books
DG
▁settle
▁Shadow
▁Bab
lly
horn
nity
▁downloaded
▁subtle
▁Give
▁constitution
apple
ingham
▁Golf
blog
▁striking
▁À
kal
▁infant
▁drew
▁lamp
▁monitored
▁MHz
▁Politics
▁Session
▁retrospective
except
▁divisions
▁BMI
RU
▁Wo
TU
▁exclusion
uid
ying
▁Δ
▁densities
▁Penn
▁foster
▁Muhammad
mut
▁elite
▁clothes
aker
▁athletic
▁northwest
▁simplicity
/\
grid
▁marking
▁contraction
▁grades
▁cerebral
hab
▁shots
▁Hon
▁NULL
▁pore
ART
▁banking
▁Sr
▁alterations
▁estimator
▁Lou
▁electromagnetic
atta
▁Dennis
UE
▁collector
total
mia
gio
▁Principal
▁okay
▁expedition
inc
▁Rap
▁quantify
▁Iranian
▁<?
PV
▁Universe
See
▁Grove
▁queue
▁validate
iest
▁Vel
ching
ár
WS
▁Scr
▁cargo
▁slave
▁Publishing
▁eigen
▁fever
▁tick
TX
▁VA
nova
▁Din
▁fastest
▁Kat
▁tu
▁guitarist
▁Character
▁Secondary
▁linux
▁therapies
▁sends
▁DP
lain
▁Nano
▁rival
Path
▁Insurance
▁sal
▁Luis
ка
logist
▁synonym
▁Tai
▁cameras
▁bat
▁Rather
pay
▁Orthodox
▁struggling
▁Customer
▁lean
COM
▁filtering
mad
plan
ounce
although
▁accordingly
paper
▁acre
▁lunch
▁plaque
▁WE
▁Signal
▁Person
hydroxy
▁Broadway
KA
agon
▁CSS
▁psycho
▁Ridge
▁delta
▁breach
▁Lind
▁speeds
▁frozen
▁rainfall
▁Mason
▁Rate
▁hire
Box
▁Morning
▁Tyr
▁assert
▁Hil
dorf
→
▁Us
DL
▁sl
tig
▁surviving
▁Canon
▁authorized
▁¼
cet
▁regulator
▁considers
▁decides
▁fraud
▁Oliver
▁connector
wit
▁simplified
▁consciousness
▁substances
▁experiencing
GI
ο
▁photographer
▁premium
▁shed
XX
▁Break
ound
▁Close
cz
.....
▁searched
▁IF
ESS
ş
▁Friends
▁advances
▁dye
▁Actor
alo
▁viability
tour
rite
▁funny
emp
shop
nen
rent
▁primitive
▁boards
wei
▁Christianity
▁Diamond
mini
▁Phone
oids
▁constitute
deb
▁sperm
▁favorable
▁KB
aver
▁Mono
▁modulate
▁Gall
▁clinically
▁prescribed
▁origins
▁clo
break
rf
pens
▁venue
▁tanks
ów
▁smell
fen
▁spine
▁adapter
▁attendance
▁apple
party
ere
▁Transportation
large
ת
▁Property
optic
▁Stop
yama
▁credited
▁encoded
)))
▁heterogeneity
▁Throughout
▁flower
▁acted
▁coordination
▁dependency
▁invalid
▁splitting
▁supporters
▁undergoing
▁farming
▁dont
ios
▁tubes
▁Bath
vey
▁convinced
▁fu
Su
▁petition
▁Hey
▁translate
▁abortion
▁triggered
▁immigrants
▁dried
▁Hampshire
trophy
fused
▁Tang
▁invest
▁globally
rush
▁converge
det
System
▁rehabilitation
▁stereo
▁undergo
KO
▁Interest
▁Hit
▁relies
udge
▁scientist
▁digits
▁Andre
▁surely
▁Engineer
lur
▁iPhone
ici
▁Kirk
▁Clo
oda
▁Singles
IB
▁Ant
▁nest
▁Guitar
▁crossed
▁romantic
▁Rail
process
▁Applications
▁comprised
tabular
▁armor
itan
rink
Hz
▁Dakota
▁Spa
▁kid
▁besides
▁Flash
▁averaged
`,
spin
▁Beyond
▁Palestinian
ogenesis
sudo
temp
▁fatal
▁Campaign
▁Harrison
▁Better
▁climb
▁ℓ
comment
▁freely
▁transplant
▁shade
▁residue
▁Reform
▁packets
enter
▁Dur
tub
▁:-)
▁Strong
RY
▁Bitcoin
wedge
profile
▁scripts
▁utilizing
▁parliament
▁sketch
▁verification
▁donor
▁Basketball
acetyl
▁{\
▁restaurants
cipit
bet
▁startup
}{(
▁Nine
▁savings
▁Agriculture
loid
▁Marketing
uan
▁calm
▁Knowledge
▁Bit
▁spare
▁Testing
▁sheep
Work
ABLE
▁rap
▁Madrid
▁Kara
▁infectious
writer
▁fate
▁advise
ل
▁atmospheric
▁fe
▁legitimate
▁Sto
echo
▁comprising
▁flame
▁rivers
▁reasonably
uting
▁sacrifice
rand
▁tickets
▁seasonal
ometer
▁AG
oto
cache
▁importantly
▁fruits
▁alternatives
lob
▁strengthen
▁steal
▁Bin
▁peptides
▁puts
▁caps
▁clay
▁Joan
▁decent
▁Sleep
▁Tea
▁Updated
▁Kid
▁sustain
▁HM
▁Organ
▁metastasis
▁mapped
▁cartoon
▁CBS
▁dying
▁tourist
▁Vincent
enko
▁Sl
umble
▁phosphate
▁consequently
▁Twin
lah
lich
▁ghost
▁advisor
▁Abraham
cen
▁Theater
Link
▁standardized
▁initiatives
▁lineage
▁sake
▁consumed
▁ser
ло
▁Bengal
height
▁rendering
ault
▁oriented
lice
▁Nicholas
▁segmentation
▁tongue
Du
sync
mathfrak
ologies
electric
iser
▁Yorkshire
dz
rep
without
▁sensory
▁Than
▁Flag
▁traditionally
West
▁sampled
▁scar
▁shallow
▁Hello
▁thyroid
▁LV
▁southwest
▁suppressed
▁secured
▁stained
RES
▁extracellular
train
scan
▁McCa
▁contexts
▁focal
([
▁palm
fluor
lid
ential
▁constituency
ury
PK
tilde
▁newer
emo
▁Hispanic
ва
▁firing
sphere
onne
BH
Mu
▁Origin
▁Material
cess
▁Technologies
▁democracy
▁eq
▁Blues
▁projected
▁torque
▁undertaken
ogram
▁Ul
▁Tru
Col
ée
strict
▁encryption
activation
tach
▁manufacture
▁Recording
▁Owen
▁Caribbean
▁southeast
▁indigenous
▁lasted
talk
▁UP
▁loops
▁motivated
▁cheese
▁prolonged
team
▁upstream
Val
lining
▁golden
client
▁squadron
ibb
rug
izable
Event
HO
▁Twenty
cellular
lton
eer
elling
▁IBM
▁Representative
▁Baptist
▁Interview
▁habit
▁daughters
▁IFN
▁Usually
▁insertion
▁Email
Cap
▁reproductive
common
stack
aster
▁wise
▁transformations
series
‎
▁Panel
▁conductivity
▁stimulate
tors
ль
▁compartment
▁Sale
▁consultant
chem
▁Terry
▁Gay
▁Lead
▁freeze
urs
▁contour
▁Flow
▁placebo
én
▁grep
▁successive
▁dictionary
three
▁specimen
ERT
▁discussing
magento
rom
proof
▁locked
▁merge
inf
▁Virgin
▁retreat
▁Database
idine
MAN
▁avoided
▁literacy
▁comm
ла
▁pour
▁Vegas
▁ethics
scribed
▁Happy
responsibilities
subseteq
▁severely
▁te
▁bash
south
▁Gau
▁rigid
▁CG
▁Sci
▁Kill
ject
modal
▁protecting
▁salary
▁Racing
▁cotton
▁genotype
nucle
▁Carol
▁Competition
▁ordering
BG
chel
▁Depending
▁Shar
▁ward
▁bow
▁convenience
ease
AK
▁alliance
▁cumulative
▁Less
▁repository
▁lawsuit
▁Marvel
standing
▁unnecessary
▁fighter
ered
▁waters
▁Lat
▁formulas
bru
▁slide
▁Half
▁Alberta
imal
▁honey
▁detecting
ITY
▁hell
TD
rium
▁aluminum
▁differentiate
rell
▁folks
▁demonstrating
▁traditions
▁Abu
▁Soon
Sp
▁Peru
owner
▁demon
▁soundtrack
▁psychology
▁Gan
▁mold
War
▁Novel
▁Cou
▁naval
▁Assume
▁animated
▁merit
▁Comics
▁purified
▁mistakes
▁Package
hit
pub
keeper
▁reactive
▁infinity
Cor
hun
▁Indians
▁Mega
▁tar
▁uncertain
▁GPU
▁antibiotic
▁Ethics
issa
▁cats
▁sequel
sex
▁GPS
▁lit
gt
▁lesser
▁dramatically
patch
▁Sco
▁Hawaii
▁Voivodeship
▁Sample
▁Amendment
▁uncle
▁Ivan
RK
▁diffuse
reach
▁agenda
They
have
▁<-
▁CN
template
▁urine
▁nuclei
▁pale
▁tit
▁endogenous
▁wires
▁campaigns
because
LV
▁Gram
▁ligand
▁enters
▁stupid
From
iller
rose
▁presumably
▁hardly
▁Crystal
▁Apache
kon
▁assisted
▁Flo
▁lecture
▁expense
▁Bow
quo
zeta
▁Match
▁UC
▁memorial
national
▁Nik
▁Same
▁url
▁shops
▁Glasgow
▁preceding
sam
▁neuronal
▁TP
▁ritual
▁Ghana
▁adolescents
▁scroll
▁Wy
▁colleges
fat
▁eth
▁sparse
▁antibiotics
▁Reception
▁prevents
▁Justin
▁proximity
▁photons
▁liked
fact
▁developments
▁bilateral
define
return
▁Ep
▁Personnel
eptic
agan
▁coins
random
rect
tax
cigarette
nabla
▁Temp
rash
VD
▁absorb
▁Against
element
▁Changes
▁Cruz
▁spectroscopy
▁neighboring
▁laugh
files
▁corrections
▁Generation
▁tan
▁bare
▁humanity
▁Innovation
▁temporarily
▁enormous
▁Sab
▁dragon
das
rog
▁Broad
▁sed
EU
poly
guard
▁arising
▁Guest
tip
▁pediatric
▁refresh
zel
ROM
▁observable
pent
▁Investment
▁Tool
emic
▁mutants
img
▁Mand
Code
▁Mau
gis
Max
▁Pont
▁sciences
hawk
▁Scout
▁connects
▁investments
fast
amble
▁sup
▁discusses
▁hierarchy
exec
▁Corp
▁Catherine
▁Turner
▁fantasy
Art
▁Def
TRA
zing
iza
rv
▁Driver
iger
▁recurrent
tikz
▁Kas
▁circuits
▁rifle
LG
▁Henri
valent
▁Tell
▁inhibitory
▁eleven
▁Richmond
▁paired
▁originated
▁adhere
music
▁Details
▁definite
ни
▁Canal
lower
OU
iah
▁Defence
▁interfaces
lene
▁qualifying
▁mentions
nut
ن
USA
oil
▁absorbed
▁ultrasound
▁Cle
olin
sort
▁ortho
▁shaped
▁supervisor
▁PG
▁holder
▁trait
▁praised
best
▁melt
▁duo
▁cure
mur
status
▁hitting
▁NBC
▁Maj
pac
▁gastric
Out
bash
▁Electro
▁Cab
▁Magento
▁Bug
xxx
▁stopping
eigh
▁Sala
vil
▁Sid
▁Vir
▁Load
▁Parish
north
▁competitions
▁sees
▁medications
▁accommodation
▁Murphy
points
▁poster
▁Aero
eye
▁Bed
▁guided
amino
erated
June
▁mortgage
▁worn
▁ceiling
▁dies
.$$
▁assumes
ssel
▁fifteen
aves
▁Costa
▁biomass
hua
First
▁Wait
▁converter
JP
▁floating
immer
▁Circle
▁horn
raz
OV
▁aesthetic
▁Perry
▁linearly
▁Sym
values
▁Hero
▁rotating
▁engaging
▁Faith
Tr
ologists
▁Finnish
▁routing
▁artwork
isse
▁spontaneous
▁rub
End
▁ij
▁winds
zip
pus
▁Nevada
▁march
▁punishment
▁recruit
▁differs
ulu
ł
Product
▁Stars
▁coalition
▁Roberts
Day
▁Bet
eter
mill
hil
plate
▁annotation
five
▁Muslims
▁Legislative
▁Contemporary
sure
▁Pot
▁engineers
▁rigorous
illi
▁Heaven
▁Leo
▁facial
sti
▁recipe
plicate
▁brands
command
▁abdominal
▁Sony
▁proto
▁runner
▁avoiding
▁submarine
parameter
dam
▁Near
▁Aaron
ović
▁cancers
▁generalization
∈
▁catalog
▁nobody
▁inherited
uel
▁spacing
▁upgraded
▁DI
▁constitutional
theme
▁diabetic
▁viewers
iner
▁Initially
pyr
▁gamma
▁coaching
▁Programme
▁susceptible
ility
▁concentrate
PER
▁Apart
▁TC
▁planes
▁Raw
▁antagonist
▁Rogers
▁survivors
pala
▁burned
▁Speaker
▁starred
▁lag
▁approached
scape
java
▁Victorian
▁interacting
▁elimination
▁coherent
▁Neil
SG
▁examining
uga
▁dollar
▁terrorist
▁Lisa
rw
▁arises
independent
▁predicting
azz
▁pub
forming
▁derivation
▁Electronic
▁bla
▁rendered
▁judges
▁wheels
▁Subsequently
▁poems
▁Amy
▁WP
▁Watson
▁tribe
▁Document
rh
phenyl
▁proving
▁cubic
ital
pf
▁ministry
▁Imp
▁drill
▁Warner
▁offense
▁upward
▁needle
▁nutritional
▁NASA
▁VPN
▁inherent
▁cre
bis
▁interfere
▁stomach
▁locate
▁carriers
esis
▁bones
Mac
▁screenshot
Size
fir
▁Expression
cate
iving
assi
▁journals
▁Bart
▁Bristol
▁Found
▁√
ener
CK
traction
▁walked
Cha
tem
▁scholar
XXX
genesis
Cu
▁Walk
▁problematic
▁Peninsula
▁knock
▁ecosystem
▁dock
▁Fiction
▁Cuba
BN
。
▁Sweet
▁societies
build
▁Titan
▁conjecture
ANT
▁contamination
icing
Im
▁neighbors
▁Reviews
▁fetal
▁ties
▁disruption
▁Easy
▁criticized
▁geographical
finite
stitu
Ge
ст
▁Growth
▁Municipal
▁integrating
▁ceramic
ija
vat
rik
▁smartphone
▁expenditure
Book
Thermo
▁Shanghai
acc
▁Devil
jet
▁dynamical
▁platelet
]\
▁latency
ipped
▁LT
▁traveled
▁Ghost
eti
▁champions
▁withdrawal
▁Guardian
▁Persian
▁worried
▁halt
▁recognised
jun
ão
▁advised
▁friendship
wed
▁NK
▁vein
▁crazy
escent
▁INTRODUCTION
▁ubuntu
network
▁symptom
▁Protestant
▁fame
▁pink
brand
▁Fleet
▁simultaneous
▁encode
mouth
resistant
▁newspapers
▁substrates
??
▁Bai
empt
▁Que
▁Eight
▁accessed
wolf
▁RAF
▁Scholar
▁Memory
▁mimic
linked
▁ram
▁Gang
flat
▁productive
nin
fore
spor
Block
lateral
mc
▁Bert
▁Objective
▁rot
▁legislative
arity
▁flex
▁METHODS
▁cinema
▁regimen
chlor
▁Kai
March
▁dish
▁autonomous
▁reflecting
▁pur
▁emergence
▁activist
▁pathological
Group
▁Engine
▁opponents
▁Bern
▁Schedule
▁grants
▁Masters
€
Ja
▁observer
LB
▁Term
ñ
▁Athletic
▁endemic
▁lesson
▁Hugh
coding
▁TF
bacter
▁mandatory
apache
▁cervical
▁Arg
▁colonies
lv
oster
enable
category
▁Sales
spec
▁diode
▁GE
▁awesome
▁modest
release
▁Profile
▁Sure
▁Rama
▁Sierra
English
▁confirmation
▁duct
▁Steam
gest
nica
▁Hydro
json
src
▁chapters
▁dim
▁transcriptional
▁tangent
▁ramp
▁Trinity
▁Eagle
▁brilliant
▁malignant
▁portrayed
lide
shore
▁practitioners
eration
ovich
ario
▁skip
Ni
▁insist
▁Guinea
cation
save
ucci
▁Players
▁Buffalo
▁Emb
▁patrol
▁impose
▁Josh
▁liability
wire
▁prefix
▁conform
▁Rico
▁Evidence
science
AH
chrome
beat
▁territories
rang
▁Lloyd
▁Internal
▁boats
▁fantastic
half
astic
▁Kids
▁reversed
▁Linda
rows
▁allocated
odi
▁Tha
short
▁Tue
ouch
OF
▁clearance
arg
▁evolve
▁breakdown
▁Selected
▁economics
▁est
Sc
'''
economic
▁Ari
CAT
flu
▁Laura
▁learners
▁aggregation
▁challenged
Vert
▁heterogeneous
▁Planet
▁KO
▁introduces
SK
▁Obviously
▁Sean
lai
▁Arabia
те
▁Ras
▁letting
▁consume
▁py
PSC
NY
▁Pack
▁Extra
auer
▁rowspan
July
▁exceptional
▁thorough
▁Understanding
▁mut
▁gaining
，
cid
▁Patient
ories
charge
Port
▁overseas
awk
▁Device
▁dominate
▁Oscar
▁mega
▁gallery
▁Bang
▁gaming
▁exterior
ifi
▁mad
▁Statement
▁Mathematics
▁Switch
▁HTTP
email
▁relates
▁analogous
▁flip
▁switches
Measure
void
▁Kumar
kha
fort
Number
▁philosopher
driver
▁Mani
▁retro
textbf
▁epidemic
wear
▁sponsored
▁jam
▁dynasty
▁transmit
▁pounds
▁governing
did
▁suited
▁hemo
park
▁Transfer
▁reportedly
▁Conservation
works
▁prevalent
▁Barcelona
▁GUI
Gra
▁Regular
lumin
▁tagged
anne
▁oh
▁Rapid
▁lets
▁suite
▁Ancient
▁thrown
▁Topic
▁banned
▁Attack
tory
▁Highland
▁uncertainties
hip
▁distortion
▁Pic
lent
encing
▁youngest
▁subsection
ATE
▁desirable
▁streams
env
▁Rosa
▁__
▁Plain
polis
∆
▁machinery
▁perspectives
▁fence
▁Amsterdam
copy
▁<=
▁Stat
▁Jen
▁grains
▁Marco
▁Robot
▁snake
cie
▁Manual
▁Merc
></
=>
uru
▁continuum
▁Deal
por
rade
▁vegetables
icon
▁bump
▁pension
▁Retrieved
▁modeled
PAR
▁oscillator
▁NHL
▁implied
▁wage
▁eighth
;"
▁bother
▁Commerce
▁figured
▁XP
▁suppress
▁chemicals
▁myth
▁dig
youtube
OG
sea
treatment
▁convince
▁prince
▁snap
▁perpendicular
▁homolog
plant
▁ambient
▁Bau
▁Doug
▁Romanian
jur
▁simplest
▁Barn
▁Soccer
▁Kun
▁equi
▁exert
▁generators
▁NM
▁shaft
▁centres
dig
▁internationally
▁Foot
▁helicopter
▁fin
rama
World
▁modular
▁profound
▁HO
WO
▁invite
▁É
▁locus
▁landmark
▁compromise
fc
▁Montana
▁civilian
▁defender
▁blot
▁Ruth
agin
▁Subject
enne
creat
▁thereafter
▁pushing
disk
▁tomorrow
▁Approach
▁deposits
super
▁farms
nation
▁typo
▁Categories
Free
▁allele
▁Treaty
iano
biotic
▁Cricket
ents
▁comply
Ad
▁MW
▁creatures
ologic
▁Fourth
iro
▁drum
▁Bobby
▁Emergency
Black
▁bench
tools
▁(*
ulating
▁slice
cmd
DV
▁technically
▁declaration
▁persist
plex
▁Others
▁Holland
▁VII
ELL
sym
▁ensures
▁Vis
scope
▁Symphony
▁fallen
▁TX
▁filament
▁MY
▁/>
▁os
▁descriptive
▁administrator
▁Vision
▁casting
mot
shark
apex
friend
्
▁killer
▁barrel
▁Corn
▁punch
▁angel
▁doctrine
▁Measurement
▁Eventually
▁⊗
▁Colombia
unch
▁organised
▁Lac
​
▁electoral
▁transcript
▁Basically
friendly
▁Belgian
}|
effect
▁Pac
▁overhead
▁anonymous
▁Zu
▁Herbert
enny
▁divergence
▁provinces
borough
æ
containing
▁searches
▁Beth
natural
bp
▁SSD
vascular
▁Mario
▁Markov
▁divorce
▁assessments
mix
▁nominal
▁nail
▁beating
▁complementary
ー
}-\
▁DL
▁proposals
▁Cameron
▁Barb
▁enforce
▁filtered
▁hepatic
▁SharePoint
▁invention
▁anybody
▁complaints
▁magical
due
▁seminar
▁Overview
},\
▁outlined
uria
▁Pictures
ador
OO
▁vowel
▁scattered
▁visualization
▁elder
▁silicon
▁tram
GIS
emon
▁fig
▁fiscal
▁situ
▁Pradesh
▁turbine
▁additionally
▁Hudson
▁congressional
lut
▁predecessor
▁enriched
▁seemingly
▁dancer
▁Soft
▁Serbia
direct
▁pupils
mile
ül
|$
▁increment
▁emotion
▁compile
▁widow
▁/*
▁washing
▁followers
▁makeup
owski
▁colspan
▁Hilbert
▁lease
health
▁retrieve
ional
▁Platform
▁blame
▁anger
pose
elia
thio
▁Root
HM
▁preservation
▁renewable
hay
▁Chang
served
rier
▁fingers
на
▁thermodynamic
aco
▁Stories
▁OH
▁leverage
etter
▁hop
▁alias
▁compositions
▁mitigate
▁cooperative
▁pig
inner
▁critically
▁neighbourhood
▁deputy
msg
assemble
▁treasure
▁geographic
▁attacker
▁Bha
▁clan
dm
▁cult
▁Poll
▁Unknown
morphic
▁Pool
FU
▁WHO
▁encouraging
▁affiliate
▁Nam
▁amplification
▁mystery
here
▁staying
▁pointer
▁Blo
▁latent
▁multivariate
condition
physics
ע
MIC
▁assembled
▁Ent
▁linking
bay
▁debuted
▁EL
ih
▁programmer
▁jury
arily
▁arithmetic
▁designation
▁biopsy
▁rotate
UI
▁rewrite
▁biochemical
▁auction
▁BM
eff
об
▁perturbation
ulo
rupt
▁Chain
▁Biology
▁attraction
▁tender
▁verbal
Ver
uzz
▁Vic
▁pressing
▁Kri
▁predictor
▁crude
liter
hline
generation
▁accounted
phen
▁Madison
▁planets
▁Species
iated
▁tear
▁ballot
▁dealer
▁collisions
▁updating
▁BR
▁nutrient
▁regulating
UG
display
▁wrap
▁speaks
▁descriptions
regulation
thetic
▁impedance
▁tenure
▁talked
Oh
▁stall
▁Rabbi
auth
ocyte
▁premiered
▁harmful
▁peaked
▁formats
▁quotient
meric
▁Foster
▁Mills
▁Stuart
▁Running
ARE
▁(“
▁Chat
▁funeral
▁essence
▁intercept
▁Isle
▁heir
uta
holders
▁Worth
tti
▁humidity
kers
▁Simpson
etz
▁electronics
▁accent
▁hopes
▁argues
▁Sultan
bic
boro
▁sophisticated
ously
▁Cel
▁Nursing
▁FIFA
▁earning
▁clicking
▁[...]
shaw
▁Gregory
MAP
general
▁neighbor
▁sentiment
▁spelling
▁resume
PATH
▁democratic
▁donated
}}}
▁Denver
▁cyto
▁euro
▁Rud
▁unchanged
▁everybody
▁spiral
▁Brook
lb
▁agrees
▁Armenian
▁Letter
▁GHz
posing
▁silence
roma
▁Karen
▁Solutions
WC
▁hierarchical
NH
▁cons
▁MAC
▁tribes
vul
▁dozen
fest
▁wanting
DIS
▁praise
Ag
▁Vehicle
ulin
▁Alternative
▁politicians
▁hasn
tonic
▁Client
▁supervision
▁Vas
▁illustrates
cott
synchronous
lé
▁seeks
FG
▁Wrestling
deficient
▁exceptions
SIS
December
▁License
▁habits
▁enrichment
wich
▁Rangers
▁imported
inate
▁Added
▁LI
▁blade
▁arrange
social
▁ce
▁Carbon
▁incoming
▁cancelled
▁diesel
▁AE
▁pancreatic
close
▁barely
▁symbolic
▁Zero
▁Trophy
bour
kie
▁affiliated
unda
▁capita
phosphate
▁partitions
▁val
▁cycling
▁qua
▁Images
▁saturation
▁Wed
▁NR
的
▁diff
▁Genetic
▁pile
ily
stin
oko
▁infer
eira
SY
▁Fur
▁strongest
▁accepting
▁Ralph
▁discourse
yang
▁strand
handed
▁Aviation
▁🇺🇸
▁PB
▁transplantation
▁mast
▁furniture
▁arterial
▁quest
▁Rac
▁passport
rude
▁spreading
uffle
▁spite
▁Expert
▁portions
▁terrain
▁NEW
▁justify
pair
▁Loss
▁elect
kawa
▁Diet
▁Musical
▁conscious
Tech
none
▁residing
▁shortcut
▁nutrients
CAM
uce
▁Wine
▁Reason
PEG
blo
▁Option
▁Manhattan
▁opt
▁cake
▁traded
▁businessman
▁Socialist
▁beneath
assa
▁observational
▁Move
▁Launch
▁WS
DU
▁throne
Order
WI
emer
▁Fen
surface
▁analyst
especially
▁BO
▁terrible
▁Clearly
iu
▁influenza
▁Connection
▁eco
▁Legacy
vm
▁boiler
▁realization
▁MAP
▁Average
▁continent
INS
▁Latino
▁defeating
▁permanently
▁HI
▁Charge
▁nomination
Dr
▁prognostic
ь
▁Choice
▁wishes
▁dB
▁irreducible
ood
▁Cinema
▁Gate
alli
▁Mou
▁rip
tsu
localhost
▁Hel
▁Bayesian
▁licence
inda
▁Tal
▁Gospel
▁Often
▁Shaw
fel
▁heated
▁arriving
|^
ogg
pod
▁saline
anger
▁Pas
Manager
quant
around
split
▁Certificate
ando
▁Tagged
▁Picture
▁Biden
price
▁Buddhist
Let
astro
▁Lau
▁Å
▁Drama
BU
▁quantified
″
▁unified
▁ought
▁mom
▁wildlife
▁Eddie
▁IEEE
▁emails
▁genuine
▁weaker
▁fibrosis
bd
▁Economy
▁grip
▁Display
cn
▁specifications
▁Chapel
▁colours
▁diagrams
▁grace
wr
▁palace
▁analogue
▁gotten
▁ND
phyl
▁queen
oose
shoot
ière
vine
▁Stream
▁rectangle
▁Bour
во
▁ANOVA
▁Athletics
▁negotiations
▁predictors
▁cytokine
▁polymorphism
▁Mining
▁Ski
▁inventory
▁Unless
▁Jennifer
▁affordable
▁Clinic
▁employers
▁travelling
▁Ven
▁rpm
gie
icus
▁Leg
▁grandfather
AU
▁lady
ody
▁withdraw
skip
▁Leadership
▁attain
inated
▁Setting
Exp
................
▁biomarkers
▁Gilbert
▁plum
ania
▁Weekly
▁Pain
▁Shakespeare
▁rape
▁remembered
ד
▁cage
▁determinant
▁Fighter
▁starter
rav
▁delivering
▁experimentally
▁Workshop
▁Exhibition
▁compiler
▁Reed
header
▁belonged
▁thoroughly
▁Cohen
▁cheaper
▁Hint
▁pathogenesis
▁drove
osi
▁Testament
▁Focus
▁Producer
uint
▁Florence
tica
▁Edwards
hart
Her
▁adsorption
ipping
▁Sher
▁recombinant
▁badly
▁Spider
gil
▁dot
pgf
▁reproduction
sorption
court
▁historically
▁Anglo
▁commentary
▁Thai
plus
apped
▁EF
cele
▁maintains
▁Jamaica
stick
April
▁mock
▁irrelevant
▁Yi
micro
▁patron
*(
▁Raymond
▁feasibility
agi
▁mysql
production
obs
trophic
trained
wheel
▁subgroups
INE
▁Todd
▁voices
▁robots
▁disappeared
▁legally
▁screened
AW
▁harvest
atter
EK
▁Fran
ulus
▁Ellis
▁Raja
▁scaffold
▁caution
▁reserves
▁answering
▁trailer
▁crusher
▁catalytic
▁equals
▁grab
▁Ted
▁combines
crit
fly
▁filmed
▁EN
▁Graph
KK
▁Rab
▁pharmaceutical
▁pathology
▁promised
==
▁acres
cardi
▁yard
ctl
▁similarities
▁wisdom
▁percussion
▁escort
escence
▁Ernest
▁plotted
▁Kom
▁packaging
▁stones
▁Nebraska
▁Danny
▁Likewise
▁Sau
▁realm
▁Chester
té
▁skilled
MAX
▁Mot
▁prone
▁Ronald
built
▁urgent
▁knot
▁enhancing
<\
▁intuition
▁covariance
ipe
▁prospect
▁Ala
▁Archbishop
▁norms
▁clarity
är
cephal
▁insects
▁Nurse
▁Graduate
▁desk
component
resolution
▁Status
▁dive
▁Leonard
vie
▁clouds
▁ros
▁defending
▁Weather
response
▁Activity
▁shortage
STR
acle
▁enterprises
xia
▁shoes
▁viscosity
scribe
▁Almost
▁inferior
▁supplemented
▁Workers
▁handed
▁chips
archive
▁artifacts
▁advocate
▁resection
▁Jefferson
ugh
▁bulb
▁TD
Ko
▁flank
▁vapor
▁Month
escu
▁soap
atch
▁metabolites
typical
▁abnormalities
▁MV
centric
▁fo
▁Turk
▁flesh
▁Emma
▁auxiliary
▁empire
▁Sm
▁YOU
▁Rice
▁sheets
message
▁Semi
▁Ave
▁implicit
▁abandon
▁negligible
asso
photo
▁Mos
▁Teaching
▁pc
▁pros
▁inject
▁premiere
▁Available
▁Azerbaijan
▁Flower
cient
▁normalization
dha
▁Bach
San
Ed
▁Campus
tv
▁parks
▁curl
▁Output
▁rope
▁Gol
▁AV
▁ridge
▁larvae
▁Tau
esse
▁angry
mie
Some
next
▁Relations
▁draws
▁minus
▁GI
custom
▁Xi
borne
▁Factor
▁calc
▁harsh
▁arrives
therapist
▁Poisson
▁JA
▁Popular
▁dealt
▁Abbey
▁traces
▁compatibility
▁forgot
▁Kre
▁formulated
▁Traditional
▁Mach
▁grape
▁definitive
AND
▁breathing
▁photograph
▁pitcher
▁drainage
itu
lou
▁Potter
▁Write
&\
▁Nancy
▁clue
▁Terminal
dding
lift
▁patches
▁streaming
▁Accordingly
▁aqueous
▁sequential
▁Define
▁permits
▁Pine
▁proves
▁Syrian
▁axial
worm
Trans
▁Dynamic
evo
ril
displaystyle
▁Nas
▁Athens
SAT
▁pins
player
▁transmitter
^{(
tool
▁Choose
laus
▁aforementioned
gard
▁socket
▁wealthy
▁warming
ти
▁morphism
▁motorcycle
cop
▁infrared
▁asymmetric
▁rejection
abb
kind
▁feat
infected
▁identifies
▁Pete
controlled
Why
▁Harold
aca
area
▁SEM
South
▁Philosophy
▁suck
▁Mental
▁qualities
▁scrap
isch
August
▁Truth
ische
▁bot
▁Birth
▁Yama
lite
▁seller
▁Wallace
▁logging
▁Provide
▁fulfill
▁pathogens
▁eu
oral
▁mysterious
NPs
quet
▁accelerate
▁agreements
▁landed
▁Sudan
▁irradiation
▁trips
▁networking
lik
▁apparatus
▁bladder
▁Sul
RAS
▁Pearson
ю
taking
▁sang
forward
▁graphene
▁Ple
▁deploy
▁goat
Whitney
▁adherence
▁Astro
▁overexpression
▁rental
▁necessity
ш
kai
ife
▁-->
▁Berkeley
▁tribute
▁Mumbai
▁hills
NM
const
metre
▁subscription
▁Healthcare
▁Fla
▁disabilities
twitter
▁workshops
crim
▁hypotheses
Fo
▁Lev
▁observing
▁Stefan
▁fifty
inator
▁Harvey
▁optimum
mite
▁Phillips
WT
lad
▁num
▁complaint
▁deadline
▁hopefully
rim
▁amplifier
▁firewall
▁neurological
▁Lucas
','
▁poison
▁RR
mapsto
carbon
▁Territory
▁cleared
▁proceedings
shape
aja
▁conjugate
▁Publisher
tions
loy
colon
▁Wiki
suit
odd
▁colored
▁employing
▁constrained
▁cortical
▁SK
▁mall
▁Applied
▁municipalities
▁medals
▁coarse
▁Das
▁deposited
▁shake
mov
▁dismissed
▁gates
▁globe
quar
␣
▁myocardial
cong
cb
▁bubble
▁Arctic
▁jaw
▁anime
▁spark
Sub
tribu
▁veteran
▁reagent
▁Publications
]=
▁Palmer
▁Southeast
▁Fed
design
olar
го
while
▁Butler
▁disadvantage
▁distal
▁dropping
▁divine
Prim
▁crosses
▁Criminal
Server
▁Thr
▁Bud
▁vague
▁exc
▁imaginary
▁flee
▁Sei
▁transported
pies
▁marrow
▁sisters
▁ventilation
▁arg
▁Trip
▁measurable
▁Swan
▁touchdown
▁Independence
▁Protocol
▁juice
cit
▁parental
tai
▁[…]
ψ
▁Beau
Best
▁accidentally
▁Lt
chor
reported
itation
▁chiral
▁inconsistent
makers
▁isomorphic
▁Solution
▁Religion
▁Watt
▁regeneration
▁Stand
▁Properties
▁fungi
▁distribute
mask
som
Open
prote
▁cDNA
▁Institution
aha
▁dependencies
hash
▁Kel
▁Dale
obj
ako
▁stays
▁Pho
▁Lyn
valued
▁faithful
material
▁perceptions
▁Dry
▁monk
▁Lib
▁flags
menu
▁picking
dine
▁Nord
▁Taka
▁pursuit
road
▁Democrat
Ph
▁Chal
▁Processing
▁upset
▁Safe
▁coaches
▁Isaac
▁Either
hung
▁Wen
▁artillery
anza
phospho
▁Pink
▁boom
Mor
Option
▁Recall
region
lian
▁iOS
▁FDA
▁Franco
▁plural
▁Features
nus
glia
▁cascade
uster
chet
▁portable
tikzpicture
▁infantry
▁exile
▁Filter
▁Stanford
▁chapel
▁DOI
border
tation
fermion
▁Border
▁broadcasting
listed
beck
▁unlock
▁dreams
▁Julie
neu
modules
alter
▁Resource
▁Strategy
▁Views
vim
▁initiate
▁crystals
Ti
▁Prison
learning
▁False
▁Lion
▁acknowledged
liga
▁delays
▁Evolution
▁virtue
▁torture
▁Zen
▁hanging
▁purchasing
▁≡
love
▁Tools
▁footage
▁broker
▁Delaware
▁grasp
▁Initial
▁morbidity
Back
▁trunk
▁iterative
directional
▁pal
▁Johann
bone
▁trapped
▁Simulation
ises
MIN
support
▁invented
Lab
▁peers
▁Dom
▁accumulated
▁owing
std
▁copied
▁modulus
method
Attribute
activ
▁battalion
▁Conversely
▁costume
feature
▁Eve
Based
▁Vladimir
▁emperor
▁convicted
ought
VT
strong
▁cyst
▁CONCLUSION
anni
▁methylation
sworth
▁backed
▁naming
tent
▁oven
▁Charter
uo
▁Sem
▁violin
ehr
▁throwing
wig
nav
ffi
▁cyber
▁unsuccessful
▁Manuel
▁overlapping
▁Ox
▁Written
▁Rein
steroid
iac
▁WI
▁protests
mag
▁housed
▁Euclidean
parse
▁extraordinary
▁humor
▁buttons
drive
▁Must
▁incredible
▁Formation
geo
▁+/-
Source
<<
▁Module
▁Arnold
▁Message
▁Possible
▁airway
▁Firefox
▁Poetry
▁phones
▁timber
ather
▁pellet
▁Airlines
▁originate
fn
▁Lamb
▁Rem
AX
Button
▁eigenvalue
Reg
▁explosive
▁anticipated
▁Tiger
Gen
agent
▁Input
PRO
▁Munich
▁Bak
▁Rah
▁Spencer
▁protagonist
Config
▁GeV
▁Companies
David
gnome
▁boson
▁isolate
▁holy
▁Devon
▁offspring
haus
tract
▁surgeon
▁SSL
gated
▁headache
▁kiss
▁foam
▁dip
▁neglect
▁unrelated
▁inversion
▁Nuclear
▁concerts
▁governed
▁mate
▁mines
▁fluorescent
▁Napoleon
▁subunit
▁championships
grading
▁Rank
still
sted
▁graduating
▁cruise
Color
▁ 
flower
jin
gna
iam
▁CAS
▁outlet
▁tomography
task
▁pul
fro
▁defendant
▁Bog
VP
▁identities
>>
▁Perfect
▁NHS
ummer
ancing
▁Krishna
▁Getting
▁blockchain
▁ζ
▁Drop
offs
▁pulling
▁Adding
▁redshift
▁inclusive
▁Battery
expression
▁podcast
▁bridges
stable
ко
kappa
bla
heat
▁attacking
▁Oblast
▁LaTeX
▁urinary
▁Vector
▁Domain
nit
hos
rak
easing
▁painful
▁Hughes
▁Celtic
atum
▁Winner
▁incorporating
uter
🇪
lau
▁Molecular
tell
tw
▁Cos
Supplementary
lapse
▁Ara
bang
▁motif
▁buses
▁oversee
WF
MH
▁Bis
▁slots
September
▁cloth
▁spouse
ARD
▁Pearl
▁Emily
▁Probably
▁casual
▁inadequate
augh
▁voluntary
▁WordPress
▁Instagram
mph
▁Julian
nard
▁Points
Men
▁Gui
Window
raj
▁trajectories
▁trusted
▁allies
Content
Red
▁Always
debug
▁replica
lude
▁Chronicle
▁Investigation
▁counterparts
▁refugees
lusion
▁camps
▁slaves
)*
▁achievements
▁mere
zhou
volume
▁Monster
types
anus
PAC
Ru
▁lucky
▁obligations
▁grinding
▁Otto
▁constructs
▁Folk
▁hazard
▁Ambassador
ingen
る
▁Julia
▁Educational
▁loves
▁summit
▁estimating
woman
▁Ober
cke
▁Rachel
▁reg
▁Pl
tina
▁Petr
▁practically
▁Million
▁$(\
▁transistor
▁microwave
mura
▁Engineers
▁byte
▁schema
norm
lei
ulf
ب
▁Cincinnati
▁dementia
▁saint
▁Touch
Char
▁Pedro
▁Wheel
▁accelerated
▁Meet
▁relatives
▁expose
▁gall
▁Uganda
▁Grave
tian
distance
▁lobe
▁;)
▁Surgery
▁termination
aci
▁gambling
LN
▁Dig
▁yielded
▁affair
▁imperial
▁Bone
▁financing
KS
▁leather
▁revealing
▁WITH
album
▁useless
October
Info
▁schematic
▁stiffness
▁Drum
▁logged
▁stocks
▁tuning
▁vulnerability
vocation
от
▁deficit
▁Punjab
lant
engine
▁gentle
▁ste
else
chal
▁Counsel
▁explanations
▁dwarf
▁Leeds
ξ
TIME
▁shirt
▁profits
▁disclosure
ibly
▁Sharp
▁indirectly
▁hydraulic
▁sep
▁filesystem
▁intuitive
▁signatures
▁Equipment
▁terminology
▁walks
gul
▁Scan
▁graduation
▁proposes
▁inquiry
▁Alter
arra
▁Rai
▁chase
▁reinforcement
atric
▁Hop
▁Cons
▁Harbor
▁Rush
dk
▁depletion
▁occasional
▁Disc
walk
▁Feature
▁damages
Node
▁Okay
▁WHERE
▁reforms
▁flaw
chapter
▁gardens
ige
▁supernatant
▁dairy
labeled
▁competitors
▁gateway
zie
mobil
pain
vari
▁heal
▁failures
uber
▁antimicrobial
rach
hari
tee
▁demanding
▁Adrian
▁Firstly
▁Sham
▁bedroom
▁yeah
sleep
▁tier
▁commanded
▁scr
income
hook
▁releasing
▁bombing
▁Clarke
▁sorts
Select
▁sits
Start
cad
▁Ottawa
▁prey
▁drafted
▁Falcon
▁tourists
▁Allow
▁Linear
▁Supporting
Index
symmetric
journal
▁dorsal
%;
fri
▁Lynn
powered
▁Condition
▁Surface
▁Newcastle
▁prompted
▁Fl
▁Norfolk
▁lip
▁peaceful
wash
▁editorial
▁proceeds
▁Serbian
▁Schw
▁confined
▁Tommy
▁username
▁bolt
CON
▁Gla
▁subsidiary
zal
▁firmware
▁wash
▁Consumer
▁FBI
▁Beginning
▁lenses
▁nationwide
▁Joy
▁Grad
cata
counter
▁Prove
▁Reynolds
lived
▁metallic
▁manages
▁Regulations
▁conviction
widget
▁fixing
▁Euler
▁pathogen
▁erosion
▁Essay
▁Crow
▁Krist
ün
formerly
▁vicinity
▁Moses
▁::
▁responding
atha
▁pricing
▁corpus
record
plat
▁commercially
▁choir
options
▁develops
▁Blake
▁Ethiopia
▁Effective
enburg
▁irre
▁Hack
▁thumb
▁elegant
kara
urban
▁harbor
▁adjective
▁skeletal
▁Lyon
▁Immuno
▁athlete
hur
▁bears
▁hoped
USE
▁ears
▁Mala
▁Northwest
▁panic
▁Chemistry
correct
▁sensation
rob
▁nevertheless
▁addiction
▁congregation
spiring
bottom
▁deserve
▁multiply
▁pathogenic
▁(#
▁infusion
▁Dame
gic
ffy
▁Mei
▁counsel
▁stolen
▁contradict
wl
Lu
▁ventricular
▁ovarian
▁dialog
western
än
▁CBD
▁clone
▁Dictionary
▁irrigation
▁circulating
compatible
Url
bou
lax
Util
EAR
shin
▁Eco
▁Dear
▁bills
rol
▁sauce
▁easiest
sorb
▁proximal
icle
▁Copy
▁approaching
▁replied
▁flour
▁incredibly
DATA
▁Um
Life
priv
▁Scha
▁Hurricane
Comp
▁Lei
▁tablet
▁XML
digest
oa
▁Saints
▁Used
wor
▁metadata
country
▁analyse
▁LPS
▁drummer
▁threads
▁deviations
▁Cow
▁permeability
▁Quarter
▁Flat
named
▁Fol
▁Rest
cyan
▁iterations
▁Adelaide
=$
▁disks
▁Limit
▁obey
rates
going
Template
fed
fic
development
▁Rag
tical
▁Alma
disambiguation
▁remix
▁Gab
▁minerals
trust
▁raises
▁Tun
▁tired
▁invitation
▁Hub
▁dividing
▁Fuji
▁TCP
functional
structured
HV
▁SDS
United
▁unemployment
girl
▁bicycle
lore
aine
▁Einstein
▁cheer
variable
continu
▁Cul
KEY
▁UEFA
▁interchange
▁corners
▁Arn
▁Shortly
▁tile
▁travels
yam
▁philosophical
transform
ás
▁Volunteer
▁Therapy
▁Republicans
onda
dre
MEM
device
qual
▁Chase
stress
▁Anyone
▁Build
▁dilution
▁Rhe
▁arrays
▁mph
etto
RAN
▁Raven
imate
quit
▁contested
▁polymerase
▁Zn
dur
door
▁interviewed
▁Phe
▁settlements
▁treaty
▁Kos
▁pneumonia
▁labeling
tral
ethyl
▁Dub
▁retrieval
▁microscopic
arte
▁Ton
▁lockdown
sep
▁forgotten
▁Bran
▁Duncan
rano
▁Advisory
{}
▁Nathan
curr
▁Info
▁cutoff
▁tilt
aza
▁grateful
▁threw
▁Dem
▁loyal
directed
▁capsule
session
Var
rative
▁embryos
▁Mich
▁pulses
FW
founder
indi
▁parliamentary
▁interrupt
GET
▁lectures
▁overwhelming
▁rebuilt
rec
Act
▁rectangular
▁Shield
▁SSH
ower
▁monkey
▁Secondly
MENT
▁unto
qquad
RV
▁aviation
▁Settings
▁typing
▁justified
▁spoil
▁escaped
angi
▁luminosity
▁extinction
▁PCI
▁tenant
▁Piano
▁donors
lessly
High
▁incorporation
▁innings
endra
▁transformer
▁Fresh
Gr
▁Gross
adr
▁Shore
urge
▁Grim
HB
▁soluble
▁impressed
icht
▁sleeping
words
▁hiding
▁slides
▁velocities
▁sentenced
disc
▁Via
▁lord
▁embryo
▁calculus
▁Housing
▁murdered
▁tale
vian
▁weakness
▁butter
▁happiness
▁wrestling
ager
▁Heavy
▁Artists
▁Colin
▁В
▁versa
Tri
▁Liz
▁Refer
}}{\
▁eV
▁Solo
▁roller
▁competence
▁VP
ske
▁buck
abe
Hi
working
▁transparency
▁Junction
▁spacetime
▁Election
▁conc
▁purple
dler
▁timeline
▁pleased
Bio
▁Cause
HU
dock
▁masks
grass
▁Derby
▁strengths
▁Lagrangian
▁mediate
▁Adventure
▁mandate
Gi
Bur
▁Xiao
pond
▁Fermi
▁tire
▁garage
fields
▁soils
February
▁assertion
▁bri
▁Files
Result
▁Everyone
Just
▁Allah
ְ
Employee
mysql
lance
▁Depression
▁Tigers
▁stimulated
▁psychiatric
▁bush
▁disrupt
▁editions
lating
▁Bl
▁pride
▁encrypted
tention
▁Lil
▁bitter
trivial
▁Tong
▁Procedure
▁lawyers
▁Remote
prim
▁brightness
▁premature
▁Sugar
▁Galaxy
د
Array
shu
▁amplitudes
▁Reich
▁Concert
▁valued
▁pest
▁Flying
▁ال
▁Wells
▁doi
▁mathematician
Med
▁Models
nginx
▁renowned
▁Especially
globin
▁Suite
▁Liberty
та
▁thirteen
▁sixteen
TY
lean
▁Vale
▁quarterback
upper
&=\
▁graphical
▁Discovery
once
▁FE
▁dancing
▁resemble
valid
cv
▁authentic
▁kilometers
▁registry
▁Sah
▁Unity
▁Confederate
Write
▁wallet
▁broadly
▁ulcer
Bound
▁Contract
pressed
ּ
shed
▁Animals
▁Observe
▁Sigma
▁grouped
▁thrust
▁Comm
brace
ILL
eight
▁qualification
▁bp
}`
▁RI
abil
▁bachelor
▁lighter
▁decoration
▁pepper
▁dosage
rish
bbe
▁{}
▁undefined
Yes
six
▁Neg
move
▁Solid
▁creativity
▁sac
▁electrodes
▁Ahmed
▁Dai
▁Matter
Filter
Denis
▁Photography
▁metastatic
vertebrate
evi
▁Prevention
▁mistaken
▁organism
isco
▁arrows
special
peak
glass
▁plausible
▁pause
▁Decision
▁regret
▁Lebanon
▁zinc
▁designers
▁​
molecular
▁strikes
Variable
Fri
▁Cluster
kur
iate
lender
▁navigate
Mark
▁luxury
▁Wildlife
asser
▁Agricultural
borg
▁Shell
▁Fear
▁sorted
cyto
owl
▁premises
button
▁shifting
ña
▁Maz
▁adjusting
▁prohibit
clear
▁Initiative
▁cope
▁Guild
▁Ace
▁lakes
▁Networks
▁Broadcasting
Magento
▁enrollment
כ
▁Classification
▁Bulgaria
▁appropriately
▁Success
gastrointestinal
▁fuzzy
scription
▁Gin
▁Tsu
▁Lecture
usually
▁Marg
credit
wd
▁TN
▁uncommon
▁Rum
coded
▁Wide
▁resin
▁Selection
▁warrior
▁aerial
▁scandal
▁Fact
ssh
verb
dica
▁Archive
▁chloride
centri
▁whereby
▁jointly
▁Jeremy
▁reuse
▁decimal
luc
▁Brisbane
▁spill
magnetic
▁Ψ
motion
▁MySQL
▁Cali
▁actin
▁Mom
sensit
▁tense
cine
▁resting
▁converting
quire
▁gem
▁apo
∞
▁Libya
▁Lions
▁forty
ledge
generic
too
SELECT
yna
▁Resolution
▁monetary
▁Bosnia
▁CONCLUSIONS
lish
▁scans
▁keyboards
▁fighters
anny
serving
¬
▁MG
Provider
fiction
▁Degree
selling
▁citizenship
▁mud
hh
▁rack
▁Aid
remove
▁SG
float
gol
▁catheter
▁lasting
▁meals
READ
elected
crystalline
▁Allied
▁courage
▁vendor
▁statistic
SON
▁toilet
hee
aking
▁vacation
▁tin
rone
、
▁Demographics
answer
▁Heath
▁sys
▁positioning
▁Harper
▁incidents
▁Relationship
▁rebound
ppa
▁debris
▁trainer
▁Fil
boo
▁boil
▁Chuck
FILE
▁Wol
▁automation
▁outperform
ubi
▁Cyber
stroke
▁Lam
ACK
▁Serial
▁breakfast
tique
▁Erik
▁latitude
▁displaying
hear
▁Venice
▁constructing
▁joins
▁informative
▁Gamb
▁sprint
LOG
▁Montgomery
▁Quantum
▁(−
▁hammer
▁primers
REA
▁diluted
▁BIOS
▁Translation
▁Esp
▁Glu
▁Motion
▁obligation
GH
▁scheduling
▁romance
chloro
▁cease
▁ruler
chol
▁Jamie
▁Glad
▁Door
▁systematically
▁civilization
▁Typically
UV
Windows
▁positioned
▁expecting
coin
▁succession
imer
dos
dose
▁weakly
▁Meh
▁Marx
▁gig
hurst
kra
pati
▁ABS
().
sound
▁WW
▁livestock
▁monster
▁Pier
▁External
tropic
▁imbalance
▁Higgs
▁disciplines
χ
▁spa
ovsky
loaded
online
▁Matrix
▁EA
▁drone
▁Commun
setminus
▁opposing
loading
January
nier
▁Arduino
▁showcase
job
▁refuse
▁conversations
▁Bul
▁epic
RED
▁probable
▁wt
granul
▁headline
oci
▁projections
▁Sang
ades
▁Nonetheless
▁Slovenia
tube
▁Pos
urn
ships
▁Cave
exists
▁fled
ijk
▁nickname
▁denominator
▁refined
icated
▁flies
▁festivals
▁resilience
▁intimate
request
▁nut
▁Mack
▁});
▁transcripts
▁joints
▁epoch
▁arena
nig
ono
▁Marriage
brain
lux
tino
before
▁Pit
▁flush
▁coup
▁chess
▁drying
▁vocabulary
ет
Exec
▁deciding
lith
▁fungal
▁sums
▁workforce
▁bugs
▁MN
XL
▁Venezuela
▁cabin
▁Holiday
▁cation
▁Croatia
▁filing
ри
▁chocolate
iao
▁Cycle
pper
▁Friend
▁niche
▁Hammer
▁Philippine
▁inappropriate
▁trim
▁Woods
OUR
▁Roth
▁folders
ен
processing
▁Beta
▁benign
▁parse
▁São
▁Craft
ARC
▁dishes
▁Til
▁Neither
▁pap
▁exhaust
▁Declaration
▁stresses
dp
▁fixture
▁streak
▁Psychology
flex
▁cables
▁mediator
▁recipients
▁magazines
▁inequalities
nah
ellar
▁corporation
▁robotic
▁cyclo
ICS
ovo
ombi
▁Deb
▁Fantasy
▁sack
▁Batman
▁Giants
effective
▁emphasized
▁ninth
▁songwriter
▁nasal
▁Sud
▁remarks
connected
▁Admiral
▁zoom
▁fractional
▁Bennett
▁gods
▁mitochondria
NIC
thread
NU
Post
▁Marcus
▁Plate
connect
▁Hitler
igh
critical
▁charm
"/>
mash
sda
DIA
▁securities
▁quantification
▁diffraction
hana
▁PLA
▁wore
▁honors
▁packed
▁faction
teri
▁gesture
▁leakage
▁fixation
▁flowing
bow
▁audiences
▁tiles
dou
Connor
tailed
▁shame
posts
▁beetle
▁Standards
▁pretend
pul
▁primer
aran
▁shower
▁incumbent
▁snail
▁dad
ASS
tinib
ride
▁Solomon
▁Abdul
▁JavaScript
▁satisfactory
Int
wyn
Ste
▁Maxwell
Message
degree
▁linkage
▁Bil
▁bathroom
ACS
▁shrink
▁cardio
▁girlfriend
▁Parent
▁Cash
plo
▁obstacles
ension
▁Oz
▁legislature
ATA
claim
▁Pole
▁potassium
▁RV
▁phrases
▁mor
▁Wonder
dad
▁basement
ICAL
▁hotels
▁genotypes
▁energetic
▁earnings
▁prophet
Che
▁Sept
▁Brother
thorn
▁axes
▁Wan
rina
Love
phan
▁balloon
▁Yale
tori
orum
Integer
▁counterpart
▁pg
▁cultivation
▁Words
stad
▁Intra
▁freight
KB
KY
▁WC
▁∩
numeric
▁probes
▁ceased
▁cop
}"
gla
▁suburb
▁judicial
▁canvas
▁Bir
SMA
▁revert
▁Quote
bug
Section
▁convolution
▁Wor
Long
▁lane
▁empower
atri
▁bags
Account
▁Belle
▁WH
jection
fib
▁tours
actor
▁influencing
▁Classical
▁Gru
oire
▁trademark
▁amendment
IND
tsch
wake
ishing
plastic
▁illustration
▁projective
▁implant
▁preview
▁flew
hydro
▁conformal
uti
▁unitary
ро
▁reconstructed
tler
cogni
▁kinematic
▁crypto
▁PET
▁knife
▁Petersburg
▁conv
▁tremendous
▁Remix
▁protease
▁TeX
simple
Blue
lbert
▁cannabis
▁infinitely
▁Desert
impl
Call
soft
▁Cart
▁combustion
▁Jer
office
▁ads
▁Continue
▁penetration
fus
▁HT
▁farmer
▁Farmer
review
▁Cir
ophil
▁functor
▁das
▁cd
▁Going
different
▁knight
▁surge
▁kills
▁rush
▁gases
▁statute
▁Outstanding
▁Stu
ICA
▁orbits
▁Gov
replace
▁Extension
▁Kyle
ть
lement
density
▁beverage
oga
deal
▁uniquely
▁Cop
DK
▁Thought
▁gonna
▁Bryan
logue
▁Wireless
▁glue
▁nominee
▁martial
▁Fle
▁supplier
▁Controller
▁Cru
November
▁Pub
▁Congo
▁remark
▁intravenous
▁fortune
▁Gren
▁Privacy
▁clarification
yana
ę
izo
father
average
де
carp
▁pilots
▁conferences
▁erected
bun
▁travelled
▁accessibility
iq
▁Conflict
jack
▁hospitalization
▁Grass
Chris
▁Send
▁Framework
Step
▁portray
▁Interior
governmental
▁insect
bootstrap
▁Really
▁Significant
▁SEC
pter
scr
ules
nai
▁Psycho
▁Milk
▁Convert
▁tokens
▁redundant
▁translator
▁Pil
▁Debian
▁autumn
▁Marian
▁Vermont
ahan
▁implicated
hoo
▁Aus
▁Ale
▁certificates
▁Kenneth
▁excluding
▁vent
▁Cla
esta
▁contestant
▁+=
aru
yar
LED
▁burial
▁wp
established
cken
TEM
▁Nigerian
▁necrosis
▁Pap
bag
▁malaria
▁Borough
▁bankruptcy
MY
isi
foreach
collection
english
▁Reader
▁exceeds
▁&\
▁Levi
▁preserving
gnu
Ki
▁Jake
▁HB
▁missile
▁altogether
▁Andrea
quote
▁highlighting
kle
▁whale
ication
\$
▁cleavage
▁tuberculosis
▁mammals
▁Electrical
▁Sig
▁advancement
▁Gel
▁phylogenetic
▁Font
ς
▁Ultimate
Ben
sig
patient
embl
▁pressures
▁translations
ле
▁beginner
UA
А
▁fractures
weed
▁rotor
▁integrals
▁exceeded
▁triggers
▁Leslie
jer
mation
▁chunk
attribute
▁accidents
▁assignments
ool
▁Dual
▁Patriot
▁PK
▁Wick
▁habitats
▁Detection
▁supplements
robe
▁numerically
▁Easter
▁commute
▁classify
,...,
grav
▁pier
▁Curtis
▁invested
▁averaging
osphere
▁specially
▁demolished
▁Progress
choose
▁dioxide
▁Bronze
axial
▁GH
▁harvested
oud
▁spells
▁Brooks
▁Disk
▁obese
▁retinal
aji
▁terminus
▁rounded
▁alphabet
▁capturing
▁prohibited
ady
Request
▁NJ
▁eff
▁legendary
resource
▁Bloom
▁compensate
▁Cardinal
née
uge
▁makers
between
global
▁Hus
lessness
IES
▁Chau
bh
▁VEGF
▁Mn
▁TGF
▁beams
ISA
need
▁referenced
ssl
White
▁recalled
▁touring
▁Canyon
▁Argentine
ango
bigg
▁automobile
▁exceeding
▁mounting
▁beds
station
▁Dio
▁Š
hack
▁untreated
ARY
▁ambassador
▁deny
▁Prop
interest
▁categorized
▁Recovery
▁affine
▁java
▁curved
▁regulates
▁Associated
▁inhibits
▁Claim
▁excuse
abilities
▁fertility
▁Owner
▁downward
▁Explorer
▁pod
▁pigment
▁Kind
▁Camera
▁semester
▁Allan
enia
Tag
▁Sox
avid
▁biased
▁Pig
mani
▁carbohydrate
▁obscure
▁throat
ifer
gravi
▁Actress
buffer
dry
wald
Document
▁Tank
▁communist
▁Position
▁Heights
cau
▁battles
plugin
▁pressed
POST
▁omitted
▁populated
▁accompanying
Mr
▁disjoint
oxid
▁cow
aligned
▁hypothesized
▁tactics
▁skull
▁Dell
▁Clay
▁nonzero
Update
▁inch
▁Miles
▁Lawyer
ambo
▁shortest
MV
sho
solid
▁visibility
▁grammatical
character
alle
▁tended
▁meso
▁descendants
▁Tourism
azo
▁Iraqi
▁repetition
▁replicate
▁lovely
▁Proceedings
▁Triple
▁Period
nine
▁novelist
▁wrestler
Tra
▁prestigious
▁analogy
ahl
▁theoretically
uku
▁Singer
caption
amber
people
mono
▁Potential
▁referee
heart
▁confirms
▁Teacher
▁Municipality
fuel
▁Legion
▁Fixed
lization
▁Own
▁crust
▁binds
▁amp
▁Format
▁Plaza
▁secular
same
▁drunk
▁override
enna
▁Nashville
lung
oshi
▁Previously
seed
▁Porter
nese
▁Cuban
Symbol
olla
▁Idaho
▁sir
Vo
prob
▁Naka
punct
▁weigh
▁NW
▁arguing
▁cos
balance
▁←
▁robustness
▁Films
▁Fit
kun
▁Raman
▁Strike
▁Vit
▁darkness
▁Gul
▁pigs
▁builder
▁stems
▁olive
▁Request
▁aperture
▁Hamburg
RAM
linger
litz
transferase
▁decorated
▁termed
▁cursor
Rightarrow
▁Beautiful
▁differentiated
▁backward
▁instantly
▁gifts
toxic
▁handful
▁Diocese
inning
Em
▁insult
▁diplomatic
²).
▁reinstall
▁RMS
▁Belt
▁pastor
▁Automatic
▁Boat
▁tomb
▁allegedly
▁fourteen
rup
zilla
▁Supply
▁sacred
▁hints
▁builds
keeping
pir
▁Ng
HG
▁Midland
think
zio
▁Skin
▁Joel
▁referral
modern
▁Stevens
pea
▁guides
ured
▁Pros
iety
oom
▁propagate
▁retrieved
Token
toria
equi
▁Corporate
▁Feel
▁surrender
▁visually
``
▁Started
▁turnover
▁conditioning
▁McDonald
▁Sus
▁Nominated
▁drawings
▁Tyler
▁spanning
▁impacted
▁Sue
▁permutation
bian
kor
oidal
leton
▁Computing
▁CAN
▁terminate
indent
OK
▁osteo
vr
▁stressed
▁timely
▁imagination
▁Kot
▁CW
▁recombination
▁Sullivan
▁flooding
▁Davies
▁melting
eagle
affe
▁Columbus
▁Jacques
▁pat
▁imagery
▁consult
▁sqmi
▁Pod
▁�
▁suppliers
▁offline
▁sliding
▁brutal
▁Oracle
ANCE
▁(@
▁Dirac
▁IPv
God
▁neuron
erator
▁homomorphism
Range
Control
▁sealed
▁trio
▁oscillations
▁Miguel
kom
fusion
migrant
why
▁Comedy
rough
▁identifier
▁rays
▁sweat
▁rises
▁MET
▁constitutes
▁modifier
HH
▁dear
▁Medium
omer
▁Chin
▁likewise
▁abolished
▁Cub
▁Blu
▁eventual
▁Hom
▁encompass
opathy
▁Traffic
▁differentiable
▁Tips
▁keen
▁countable
▁Marcel
odes
PORT
uation
▁Walt
▁Sensor
▁coated
▁Maxim
▁Scheme
pun
▁dots
oxin
▁loci
▁Kiss
speaking
WG
▁Factory
▁Eva
▁Pitt
▁Elder
▁literal
ativity
rud
▁greenhouse
mata
▁raster
▁Glenn
keys
▁clever
▁encounters
Users
▁Cork
athi
▁JS
▁filtration
▁planted
polarized
▁specialists
hex
▁climbing
found
qubit
▁venues
▁Done
▁violate
▁Maximum
Check
▁compressed
double
▁Mecha
lingual
▁receipt
launch
▁NATO
▁lobby
▁Partnership
▁Salvador
▁Basin
food
LINE
▁obstruction
ān
▁bomber
▁distract
▁pond
▁hp
▁Frame
aldehyde
▁juvenile
▁Friedrich
▁teammate
▁Joshua
cere
▁Scho
▁transfers
▁Yar
▁Meyer
▁settlers
Core
Our
▁loving
css
▁Exercise
▁Diploma
groups
]{\
ethylene
▁UAV
desktop
▁relocated
▁consuming
▁Indigenous
▁amplified
Mil
ovi
dai
eld
▁oligo
▁hull
quer
▁roster
▁detectable
▁wiki
setting
▁Klein
▁supplementary
▁Array
▁Coal
▁Wilhelm
▁bonding
▁spam
▁Kru
Live
▁hinder
▁Pilot
German
▁neglected
▁rally
▁supervised
▁Pie
helm
▁scaled
▁Franz
▁Summit
SCC
▁Thunder
▁arthritis
▁Options
fb
gloss
Delete
▁glory
osse
▁hatch
sonic
▁assists
existing
▁dielectric
▁chromatography
▁Sheriff
ask
olate
embe
Green
▁warehouse
▁Thread
▁vanish
naut
oso
▁Indonesian
▁Terms
▁telescope
gmail
ega
▁histological
▁contacted
▁Dol
aste
chief
▁Honours
␤
Now
▁crashed
▁downvote
stand
▁scatter
▁duck
▁finitely
▁deterministic
▁Gardens
▁unions
▁graduates
▁mammalian
▁admits
▁Mask
▁metro
christ
NOW
lub
▁tenth
▁aiming
kl
▁toured
boldsymbol
▁Xu
▁UNI
▁unfold
▁src
sbury
Han
▁VIII
isto
▁stance
opia
▁minds
▁confront
▁guarantees
vig
▁Reports
▁Ranch
Lambda
▁Taken
itor
▁miRNA
▁concurrent
▁href
▁CRC
▁Counter
▁Drupal
▁borough
Top
▁Comb
ondo
▁Regulation
▁Thi
▁С
▁Fellowship
▁SNPs
trick
done
avel
otta
titution
▁keywords
Ident
HQ
tick
margin
nitro
▁categorical
▁slopes
▁sto
isha
avo
▁cemetery
rater
▁Tat
▁consulting
ophag
aï
▁Experiment
lp
▁teaches
▁Reaction
▁badge
▁proportions
="#
▁formatting
▁conception
cant
П
▁reinforced
uto
▁textile
products
▁costly
▁swelling
DAY
▁warned
▁recreational
cade
Gal
itic
▁villain
Old
URL
▁AMD
▁hiring
North
▁homework
▁Grid
Dir
▁suspicion
pear
▁corrupt
▁Wellington
titled
▁Storage
▁lymphoma
▁dominance
▁Mit
▁infiltration
▁Raz
▁priorities
▁tertiary
▁Kurt
▁prints
raise
▁cancellation
▁Winners
wordpress
▁Casino
▁Webb
▁putative
да
▁Away
▁directories
▁ACT
▁Petro
Base
blast
▁recycling
maid
taining
Far
▁demanded
▁clinicians
▁Node
▁hepatitis
▁Proc
▁Runner
▁dozens
Paul
▁modifying
▁Eng
▁hydrophobic
rata
▁stretching
stadt
▁beaten
circle
▁manga
Coll
▁Cabinet
▁Holding
▁eldest
▁explores
▁stepped
▁citing
▁drinks
hyp
▁siblings
oct
▁Mouse
▁cosmic
▁tablets
▁Chem
▁usb
▁Temperature
▁Gl
VS
Over
▁tau
▁Samples
Dec
▁supportive
zia
▁Bala
▁melanoma
▁beads
▁Rolling
▁Powell
▁Macro
▁Dav
azar
▁nested
▁Vari
amd
▁Apollo
▁Essex
▁Albums
▁renewed
▁Nintendo
Au
render
▁brackets
▁Alzheimer
PDF
ulla
▁Contest
▁APP
erra
lator
rump
▁bracket
clean
▁Architect
TiO
undo
▁rolled
▁HCC
▁NZ
▁André
▁Whereas
AVE
tale
▁ELISA
▁Phys
watt
▁runway
▁Loop
▁viewer
▁essays
▁Letters
CRP
spire
▁discontinued
▁perceive
▁markedly
▁Bavaria
ça
▁Samsung
▁revolutionary
▁Achievement
▁entail
▁Holmes
▁xy
ISH
▁Functional
▁poles
▁lymphocytes
temperature
▁dipole
eastern
WP
▁Maurice
▁Sie
▁genera
▁Duck
▁footprint
▁Lit
drug
▁betting
▁Registration
bred
▁Colli
kine
hui
▁Directors
▁preparations
▁Kee
▁nucleo
ś
Your
▁por
▁Pill
Context
▁Productions
rable
IMP
program
sberg
•
▁journalists
▁Draw
▁albeit
▁credentials
bond
▁inscription
▁methyl
▁witnessed
cyst
CY
plasm
▁Fashion
▁Renaissance
spot
▁lightning
asia
▁catalogue
▁zu
pam
▁promises
EQ
nl
▁Hua
▁speculation
▁storing
training
mina
▁Egg
че
LOW
▁Cable
▁litter
▁Gur
▁differed
▁LAN
▁shells
▁fol
▁united
▁Sz
▁Methodist
▁Outside
▁viewpoint
▁endpoint
▁comedian
▁Vietnamese
▁anesthesia
azole
guan
▁Gibson
printf
▁guessing
Module
▁supplementation
RIS
▁sulfate
▁lecturer
▁PER
single
▁Rom
fried
fal
▁dressed
▁unincorporated
▁trustee
▁Lub
ESC
▁lifted
▁screens
▁metropolitan
▁Ark
▁greet
rl
▁SOC
▁lieutenant
▁Auckland
▁inventor
▁Journey
dling
▁Mechanical
▁Offer
▁Pakistani
eclipse
▁Scar
oxide
▁contextual
▁Fee
uration
▁cry
register
▁beef
▁annex
published
▁CAR
▁resignation
▁Cord
▁Odd
▁fingerprint
▁zoo
▁Ö
Div
▁feather
ception
▁Fifth
bind
▁indexes
▁regulators
▁lact
▁wrist
▁contributor
Height
▁questionnaires
genetic
stown
▁↑
download
▁Mathematica
▁Bulgarian
▁containers
▁Hip
++)
▁Warsaw
▁Zoo
▁Paulo
cellulose
▁dynamically
▁inheritance
esia
▁Liga
▁cores
erie
▁sham
▁Fly
▁Kle
▁Saw
▁Richardson
▁triangular
▁Nag
enstein
▁XI
▁Issues
csv
▁inaugural
▁lungs
▁sorting
chron
▁Bros
▁Banks
safe
▁kHz
▁Globe
▁Grande
▁coherence
▁pairing
Command
▁Jet
▁renovation
▁contra
immun
Cat
▁Lesson
▁Artillery
▁trucks
▁Π
▁autonomy
founded
▁Ellen
WE
thermal
▁Improvement
▁kinetics
▁Orlando
wie
▁Lastly
Hol
ָ
▁Reid
}.$$
▁Zhu
▁examines
▁preoperative
Collection
▁Gmina
▁reminder
▁Sounds
insert
cloud
ENS
▁subdivision
▁nationally
▁TLR
▁templates
▁transporter
▁Haven
▁correlate
▁accumulate
▁corrosion
eze
▁pianist
▁Eagles
LES
▁Shot
tuple
hof
von
grand
▁Wire
▁bending
▁Jesse
▁homology
▁Palestine
▁Sebastian
psych
▁mainland
bibliography
▁amended
▁Genesis
▁steering
Layer
▁mismatch
▁cricketer
▁Berry
▁medicines
Peter
▁Ard
▁Helm
▁Cad
▁comics
▁Gear
▁Haw
▁enhances
finals
▁bite
▁algebras
▁occupational
▁Murder
▁lifting
▁implication
;"|
▁meditation
ASC
▁loses
▁Pure
▁Mik
gress
▁conformation
▁Sector
pression
invasive
▁Integrated
▁approve
flam
▁Oakland
▁Hood
route
secure
▁Result
▁mentioning
Cre
tid
▁Jump
▁civilians
purpose
ryl
lamp
▁lion
▁Cher
gues
▁Nie
▁corporations
▁Mess
ference
quest
partisan
Sal
▁damp
▁deer
▁foundations
▁DISCUSSION
▁chaos
▁subtract
near
▁Fight
▁semiconductor
▁Batt
solution
▁respected
▁Wow
▁Zimbabwe
▁ה
▁babies
▁phenotypes
▁coordinated
▁Influence
▁Somerset
▁ACC
producing
adjoint
▁Industries
▁activists
▁Wool
Builder
▁Mara
▁honored
earth
Win
▁aortic
families
▁interpolation
▁Brit
Address
▁Built
▁numbered
phantom
adj
kat
oba
▁clinics
▁Aircraft
lase
TN
▁brigade
▁Tracking
API
▁leap
alla
▁Trek
▁leukemia
▁SPSS
▁breaker
▁Calgary
▁Martha
▁Cass
▁swim
plication
▁ambiguous
look
▁Chad
▁fetch
▁Programs
▁caspase
▁rotational
▁cookies
account
IDE
▁microbiota
▁servant
lica
cial
▁Mort
▁biography
chester
▁Wald
▁Cara
▁transfected
▁Notably
▁administer
eater
▁pleasant
similar
▁neat
▁continuation
Bot
▁ppm
▁shout
▁dentist
CTION
▁infect
Create
▁inactive
▁bend
▁Activities
cious
▁manipulate
▁cater
▁Chip
▁generalize
▁Partners
▁Honda
▁Administrative
▁Corner
hman
▁scanner
▁complain
▁Specific
▁priori
▁nephew
▁naive
hav
refer
▁Rig
▁CIA
▁slavery
▁Capt
ов
▁Moving
▁dimer
gold
▁investing
▁Seg
▁aboard
▁sinus
Master
filled
▁Cyprus
▁Indo
delete
cluster
something
Layout
▁cardinal
▁HPV
▁Algeria
tested
▁wages
▁Length
▁Byzantine
lg
▁Dow
ALS
▁allegations
Search
▁Tex
▁Export
▁Hybrid
ан
cpu
▁Hopkins
▁oak
uca
▁surprisingly
▁premise
▁caption
ffe
▁bucket
repo
▁moderator
▁Poor
▁nowhere
▁intentions
▁confirming
▁HK
▁MIT
▁Labels
▁fool
▁autophagy
▁Monument
▁Prague
▁affirm
▁Nobel
▁Ful
TK
Configuration
▁practiced
▁ribbon
▁Stay
▁Logan
either
ABA
extra
▁filmmaker
classical
▁impulse
enni
▁Naga
▁snapshot
PIC
▁iTunes
▁complication
erate
▁Push
???
ege
plain
▁Armed
▁newborn
ienne
▁veterans
▁`/
▁Bradley
▁pyramid
▁monomer
▁Graphics
Parameter
▁depicts
ASH
▁alleviate
▁throws
▁agonist
▁AIDS
▁withdrew
SQL
▁innocent
▁justification
▁pursued
▁Moh
▁economist
▁Tennis
▁Rating
▁Nash
Ann
▁Hook
▁Panama
▁eigenvector
▁Lodge
require
ф
▁chromatin
quel
▁Articles
▁Soldier
▁Chor
▁threaten
omni
▁Sussex
▁disturbance
▁minimizing
▁MMP
▁clearer
BER
asco
▁Teachers
▁Dist
performance
▁disposal
loom
▁exon
▁Column
otter
blind
held
▁playoff
agger
▁Ek
OLD
▁violations
▁VS
▁fertilizer
▁Strength
detect
▁diving
▁abelian
MAS
▁Warning
▁McCo
corp
guy
allo
▁NPs
mari
▁talented
Setup
▁sweep
▁defended
▁Xbox
▁metaphor
▁Kro
▁commenced
▁chemo
ма
▁archaeological
▁Viking
hra
does
▁Concept
oxa
▁Milwaukee
▁Aqua
▁Pul
▁Interaction
aul
▁embrace
▁Ami
▁Lucy
▁Purpose
▁Mé
▁les
▁vocalist
bei
htm
▁concludes
▁outpatient
▁motors
▁pedestrian
▁Sheffield
▁accessing
▁editors
▁Mage
▁Dawn
POS
▁Fill
▁storyline
▁Strange
▁generous
▁refine
obi
▁knockout
▁peculiar
▁hemato
▁"...
▁Listen
▁Morocco
▁anatomical
MON
ylation
ğ
▁Chelsea
pmod
▁creep
deco
▁"[
▁miRNAs
▁flap
▁Westminster
▁testimony
▁UPDATE
▁ischemic
▁beside
▁Gala
▁Hold
zier
clav
▁Boris
▁curse
Sta
eval
▁Tip
▁Loan
motor
▁runners
▁tears
▁misleading
dian
▁MK
▁Ecuador
▁collapsed
hid
----
mere
▁relax
▁thereof
▁prep
dit
▁Gua
▁holidays
▁Princeton
▁Crypto
Edit
▁Calvin
▁customs
▁Jeffrey
▁Brunswick
Row
▁deceased
▁\[
tiles
▁Diana
▁tribal
utch
▁Wash
▁Hag
▁adopting
▁Lum
push
▁heroes
▁Logic
▁asymmetry
physiology
▁Olympia
ABC
▁Corollary
Smith
Michael
▁polymers
iba
▁sung
)}{\
▁Finn
insky
▁monastery
Catalog
▁skeleton
▁routinely
acies
switch
▁Kali
▁implying
▁elliptic
▁eliminating
password
▁investigators
▁Amp
clock
Saxon
disciplinary
Direct
▁organizing
▁dirt
egg
▁safer
cyl
▁Gerald
▁handles
▁upvote
▁eternal
TOP
▁parity
▁Era
▁geodesic
abel
▁Scientist
kam
mach
▁workaround
definite
▁gradual
umber
▁citation
▁Vitamin
Roman
▁Mut
▁MTV
▁planar
cysteine
▁SELECT
▁plantation
▁Cornwall
utz
Who
▁practicing
Good
▁IoT
▁Observation
▁NaCl
▁Few
▁attained
▁Gha
▁>=
▁Firm
▁Presidential
ITE
▁Capitol
▁Barnes
grave
▁physicist
▁Silva
KE
▁precious
▁Dynasty
());
▁hurricane
▁evolving
▁trumpet
▁microphone
▁annoying
▁Edmund
▁divisor
holm
▁Yoshi
▁upregulated
daemon
▁Accu
▁pursuing
▁Regis
▁airplane
)-(
▁jack
▁Sche
Style
▁Cecil
images
▁surf
▁Religious
▁noisy
▁cough
▁ligands
▁Clare
▁bail
connection
▁extinct
Well
Case
▁warfare
▁appoint
▁repairs
▁realise
▁Lore
▁PRI
▁strengthening
▁spy
▁sulfur
Operator
atomic
▁Audit
▁sero
öl
▁insulation
▁reviewing
Menu
)/(
▁labelled
▁badges
▁objection
odont
▁householder
▁Someone
storm
▁Conf
stre
▁tutor
▁Lance
▁Michelle
▁radiotherapy
▁bowel
▁jumping
▁tide
▁Resistance
▁believing
Jan
▁nicely
▁Robertson
▁maneuver
▁Writers
▁Louise
Chi
▁Trend
LOS
▁Om
operation
▁Terror
▁depart
▁Crew
strate
▁historians
▁inhibiting
GU
▁Mercury
▁internally
▁Advance
tol
MAT
University
TING
▁Apparently
militar
▁chill
enza
▁homeless
growth
▁Hick
▁Hair
spheric
▁Prefecture
▁maxim
▁SNP
▁directive
▁Bod
▁Crisis
ivi
▁Males
▁affiliation
▁memoir
*"
▁Spark
Home
∂
▁Identification
▁Combat
▁Transit
oplus
▁recognise
▁orphan
▁offence
▁relying
shirt
▁Magn
lst
atsu
▁Rise
▁Tanzania
▁remotely
▁accord
berries
*\
▁destroying
▁Papa
running
▁Gustav
Super
▁siege
udo
▁Derek
▁Vor
oun
▁isoform
obacter
este
Run
tooth
▁scream
won
)\\
▁hind
chon
etting
▁Sister
▁onwards
▁gym
Spec
▁Were
▁Eugene
akov
▁Frontier
▁Fitz
pore
addy
Power
▁fade
▁Jessica
bron
hair
▁Wagner
▁thresholds
▁PRE
▁Sheet
▁excel
Gene
▁dirty
▁refund
anto
▁Leu
byte
▁Bluetooth
▁wrapped
trip
brane
▁conceived
▁Rifle
▁presentations
jay
sko
▁revenge
▁synaptic
▁alleles
▁spider
ogo
▁Ahmad
▁exhibitions
▁Imagine
▁Croatian
▁deliberately
▁Aboriginal
▁admire
TRI
GEN
▁Henderson
▁senator
▁rider
▁colleague
до
▁rupture
▁announce
▁Strategic
▁discretion
▁worthy
▁Shannon
▁Mixed
upon
Version
construct
▁Cauchy
▁grandson
▁banner
▁Scene
▁Ages
▁Rh
▁Ble
occup
▁Hoo
▁tuned
▁accepts
ISS
▁composites
▁Giovanni
▁blessing
▁vegetable
▁Knights
▁outlets
▁Progressive
▁maturity
dition
▁Strip
baum
ès
▁Mora
▁Morrison
▁margins
▁Dubai
▁clamp
▁McN
private
▁Funding
▁bounce
▁vinyl
mind
▁EEG
looking
nagar
▁Forward
▁Mae
▁Drag
▁Apply
thus
AIR
▁wherein
▁Lines
▁colorectal
▁underneath
▁Inspector
▁Writer
נ
▁retire
mala
▁Glo
pipe
▁Conduct
▁Vent
▁Technique
▁revival
Factory
Air
▁intestine
▁Gem
ftp
lead
▁disagreement
ERROR
National
developed
▁Tap
know
▁Doc
▁Repeat
Music
▁Located
▁Pha
paste
runner
▁Geneva
▁Looks
▁Dim
▁Cock
philic
lough
nium
▁drawback
▁adjustments
trum
conduct
ploid
sites
▁Exo
limited
▁privileges
atio
dress
▁inferred
▁Spe
мо
▁bitcoin
ective
▁socioeconomic
uki
feed
leave
▁stranger
▁marble
▁needing
▁wax
▁Dash
UID
▁Tampa
▁dwelling
▁plague
songwriter
tet
▁Queens
▁Cruise
▁Kap
▁fulfilled
▁comma
ograph
▁elephant
▁aerosol
▁winding
▁motifs
▁carriage
wang
▁Baronet
▁instructed
▁relaxed
dro
▁convincing
▁rewards
▁Conditions
fraction
▁predicate
oria
र
▁CK
▁nominations
▁progenitor
▁ISP
meth
oides
▁sailing
gawa
▁reconstruct
▁Creating
▁Caesar
▁discrepancy
▁Programming
▁floors
ECT
▁lanes
▁dictate
Make
peptide
▁neighbouring
`?
▁judgement
▁terminated
hp
UF
▁Adventures
{|
▁shelf
▁hormones
▁rebellion
▁pine
qi
bill
▁pulp
▁Bam
dump
▁Buddha
tactic
▁Brussels
nature
▁economies
▁convergent
▁locomotives
ск
▁determinants
hatter
TeX
hub
▁casualties
ки
▁adequately
Program
▁Outcome
▁aspiration
▁Kerala
=\{
▁Import
▁appliance
▁Stockholm
gir
▁PlayStation
atom
▁Playing
▁blur
▁tidal
▁glove
▁filename
▁cleaner
▁grandmother
semi
secret
▁saturated
▁crashes
▁hemisphere
▁suspicious
▁noticeable
▁scarce
gren
▁passionate
▁rebel
▁Laser
▁custody
▁zip
▁Tales
▁deduce
▁refinement
lord
easy
▁invisible
East
▁comprise
▁wounds
▁sporting
▁socially
▁stats
▁subscriber
cession
▁competent
▁dining
conjugated
▁conduction
▁journalism
▁ideals
▁fermentation
▁chorus
▁STAT
▁dice
▁lethal
▁recursive
▁Fernando
▁Lorentz
ribo
▁Cav
ła
▁Proto
▁pupil
headed
▁microorganisms
▁relapse
▁cultivated
oki
▁crossover
▁cliff
▁Ethernet
package
▁strips
▁Feed
▁Shift
▁Vista
▁Positive
 = 
▁privately
▁Helsinki
▁ignoring
▁spotted
▁inducing
▁Tropical
▁shit
▁spur
▁exams
▁prisoner
▁honorary
Gold
▁fascinating
ARS
▁biofilm
▁Honey
▁migrate
ilia
▁witnesses
▁fixes
▁Split
eries
▁coded
▁Scotia
fig
▁lightweight
\@
egan
▁Blair
▁refuses
▁Filipino
ggie
Δ
ATT
▁Developer
subject
▁buyers
▁Bend
▁folding
▁Disorder
▁taxi
▁Riemann
▁Briefly
handle
▁Budget
ARCH
▁frog
▁Timothy
▁critique
QC
▁Cities
▁electrolyte
▁ankle
▁Trent
Method
▁donation
▁laboratories
EAT
▁playoffs
▁Canton
etch
▁premier
▁sterile
▁touched
▁Direction
▁struggled
▁dial
designated
context
▁discharged
▁HER
▁Latest
▁conspiracy
▁transforming
visible
▁Cry
▁Istanbul
▁corridor
▁Hour
▁Teams
)=(
▁filming
▁brave
riz
▁Nest
nite
hydrate
▁wreck
▁Tara
derm
Controller
▁enjoying
▁separating
▁plateau
timestamp
cool
THER
▁Interface
▁trafficking
Plan
gain
▁NSW
▁advancing
gence
KR
▁cryo
▁heuristic
ecto
ifiable
stackoverflow
▁touching
onian
▁Grammy
phrase
▁glyco
alam
authored
bac
▁knockdown
▁copying
▁locality
▁possesses
▁circum
▁uploaded
▁backwards
]);
▁silly
setup
▁Santiago
▁bent
▁Hindi
gap
iddle
▁Above
▁mortar
▁pronoun
fighter
ographer
▁hexa
metabol
▁visualize
▁commentator
▁Resident
▁Boss
▁brass
▁faint
▁outward
berger
▁explorer
▁Scal
cart
▁privilege
▁swallow
▁posed
bearing
▁Angels
CHO
lace
▁performers
▁Treasury
tempo
▁heater
chard
pulse
▁Dock
dark
▁Rot
TED
▁FAQ
▁QGIS
▁Factors
▁Clement
chat
rance
DOS
▁arbitrarily
Function
PAN
▁Tac
tec
▁methanol
apping
▁launching
▁throughput
Piece
▁compromised
rack
▁Sons
regular
invariant
▁specialty
▁suffix
▁Outlook
volt
▁guards
▁proprietary
▁Simply
trace
▁Armstrong
▁Organisation
JA
esophageal
mé
▁ART
▁tent
produced
▁Durham
▁cues
▁immense
gni
▁Adobe
▁riders
Cache
▁Truck
▁Brent
▁purity
▁HLA
prec
▁Edgar
▁aureus
▁pools
opp
Ref
▁willingness
Action
▁continental
contract
▁Romanized
ukh
▁Andrews
detail
sexual
▁Newport
▁Bright
▁CDC
having
▁Swift
UST
great
clad
▁Roosevelt
▁cron
▁Dong
▁Mathematical
eps
Game
▁Variation
▁inclined
▁exotic
▁fluids
▁loyalty
▁eager
▁helmet
Collect
▁Siege
▁freezing
ugu
subscribe
strom
▁Expedition
▁satellites
Γ
earn
▁undertake
▁unprecedented
▁Aires
▁venous
endo
political
peri
▁Witch
▁withdrawn
▁sq
▁spacecraft
▁planting
MW
▁Lancashire
ère
▁kn
▁differing
▁Boulevard
mitting
▁Boeing
▁examinations
▁graded
▁Anglican
▁Except
buff
phr
▁fabricated
Space
▁kits
wai
▁formalism
▁conventions
▁hypothetical
▁Distance
▁Kla
▁punk
▁Dad
CHI
▁cartilage
▁altar
▁Dh
▁disconnect
▁Mile
RAD
INFO
▁arose
Left
▁originating
original
▁pipes
AZ
▁Coalition
opo
▁Wie
abc
▁questioned
▁Imaging
▁dumb
▁silk
▁Beauty
▁Lex
▁Opening
Math
wife
▁glasses
▁Vote
▁axiom
hya
▁Kab
released
)+\
LAN
▁Gai
ș
▁recurring
Italia
▁naked
▁SET
=-\
▁sleeve
▁Jac
Bra
woo
guin
psy
▁Garcia
▁wander
gb
▁damaging
▁clearing
▁knocked
▁mA
Input
environment
▁primes
▁newest
▁alumni
▁Kingston
Brien
▁hypoxia
Require
▁Brun
trap
adic
▁pedal
▁Bailey
▁executing
▁malicious
▁rim
▁Rand
▁Eyes
▁Aim
▁overweight
▁Wizard
▁pronunciation
▁seized
bab
▁moderately
NER
noise
▁forums
▁NMR
morbid
▁simulator
▁penalties
▁Indianapolis
▁wherever
▁Iso
▁Panther
▁Claire
▁Amar
func
NOS
▁Burg
▁Sanders
▁pending
▁employs
dhi
mother
leigh
▁enclosed
folder
▁waveform
phenol
▁jets
▁staging
every
▁Sever
▁heavier
▁Mongolia
shima
▁maize
▁interpretations
▁offshore
▁innovations
▁für
▁phenotypic
▁spinning
▁Warriors
moor
▁pursuant
▁Sandy
▁Chap
▁Importantly
troop
▁Burton
eiro
▁resumed
trache
weak
▁Thy
anim
Two
▁Coming
lander
▁wiring
▁squared
▁taxa
should
▁lid
clus
▁neighborhoods
▁Hir
▁Hang
ubiquitin
ру
▁Demo
▁Rash
не
▁inverted
▁tightly
▁Merri
After
chip
andra
kernel
▁boast
Plot
▁Raspberry
ieu
▁monitors
▁predicts
otti
▁cylindrical
▁beats
Cloud
beam
▁acidic
▁Lone
▁armour
▁Mirror
▁Hours
▁Jupiter
▁Chancellor
▁manifolds
▁Repair
▁Perth
▁betray
▁stainless
▁Quad
▁Tul
▁surround
▁triangles
▁frontal
▁Citizens
again
▁compelling
▁Managing
▁Radi
▁proceeded
▁entertain
▁Excellence
▁referendum
▁CAD
▁Acid
▁diminished
▁Regardless
▁Ou
▁Transition
tek
▁clones
▁donations
FIN
▁Lutheran
metal
▁Kerr
▁Hypo
▁Hash
▁weaken
▁Opti
▁Ruby
▁rumor
chemistry
▁Continental
▁Lightning
CNT
▁Cheng
▁diplomat
▁Nico
▁detective
▁genetically
▁yielding
configure
▁theatrical
hoc
▁Dylan
▁Sisters
▁perturbations
▁alternating
▁reversal
▁eject
▁repeating
▁mutually
▁ecosystems
liv
▁nitr
lack
▁Gender
▁commissioner
ardo
▁dissolution
▁SHA
stimulating
▁multiplied
LK
▁engineered
▁flavour
▁Bradford
▁Iceland
▁Pon
wu
ferro
▁wavelengths
▁firearm
▁vortex
▁terror
igne
▁homeostasis
▁pooled
▁antigens
▁nowadays
▁exploited
▁IGF
▁Khal
▁territorial
▁Shir
▁differentially
enda
▁bottles
▁Endo
union
▁Nutrition
▁terrestrial
▁Evil
▁inspire
▁beans
▁ICT
▁PCA
hog
▁Integration
▁deficits
ovic
▁predominant
▁resonant
▁caregivers
letter
prise
trin
▁forbidden
▁reopen
▁embryonic
▁Hull
soph
▁syllable
▁technician
▁WiFi
VER
▁Rosen
▁Monitoring
MAR
▁investor
▁Herald
▁decree
horse
▁logistics
▁tournaments
▁lowered
▁Haiti
NZ
▁Desktop
▁ancestry
▁captures
▁Caroline
▁Ultimately
▁Nut
▁ICU
▁nM
▁Preparation
ALT
flight
▁Rhode
▁tricks
со
Next
fail
▁за
▁crawl
oscopy
Adv
▁vanishes
▁ADC
▁attenuation
▁diminish
▁Jag
▁ancestors
▁Malcolm
DES
▁Leaf
▁Kitchen
▁gaze
attr
£
▁los
▁Ole
▁exploitation
▁politically
▁discovers
▁Armenia
management
▁tricky
pont
▁buyer
--------------
▁Speech
Render
discover
▁Standing
▁diverge
measure
Rad
nh
▁Huang
▁cannon
▁breakthrough
▁contractor
▁Rey
▁Sustainable
pick
▁Echo
▁voyage
▁occupy
▁shoe
▁Meaning
▁educators
▁deform
Site
complex
▁neonatal
▁gospel
▁visitor
▁responsive
Drive
▁rodent
pg
▁partnerships
▁Authors
birth
▁silica
▁Marsh
▁alteration
drum
reme
▁fabrication
breaking
▁Holl
▁Problems
▁innate
▁packing
orient
ghan
▁urge
ϕ
▁bool
▁===
▁Publication
ctic
▁maturation
▁histogram
▁shutdown
▁Bring
▁appreciation
▁Fuel
▁pledge
European
Sam
▁Terra
▁Essential
▁parametric
▁cavalry
▁booking
▁inducted
▁sailed
▁Fiji
▁mmol
▁apex
bourne
▁sunlight
▁slab
▁PCB
▁outfit
▁racism
▁Rao
flag
▁Carroll
hul
▁evoke
dat
fidelity
▁Layer
▁Lay
ape
luck
gur
deep
▁phosphor
▁Hardy
champ
bull
▁Liber
▁cartridge
cyclic
▁purification
▁MeV
▁exo
rava
▁disputes
▁revolve
▁collaborated
Seq
Tool
serve
▁Ctrl
▁backbone
▁basket
▁cleaned
rü
Main
▁Betty
▁Toyota
underline
tang
china
kB
▁parade
▁Cardiff
nuclear
▁Crawford
▁Revenue
▁propaganda
wine
▁singularity
▁Brandon
▁reside
▁Fields
payment
▁volatile
enumerate
▁anomalies
▁Buenos
▁Stress
▁WB
hiro
▁anomaly
▁mills
Jack
▁Rocket
javascript
▁entanglement
▁Atlas
chia
seat
▁Johan
▁transferring
▁Rhine
🇦
▁Gut
pound
contact
▁harmony
▁AZ
▁Directory
▁GW
Photo
▁Southwest
▁Hank
▁Implementation
▁Exam
▁iPad
leaf
▁Rho
▁BMW
▁trails
▁Giant
potential
coordinate
Mod
ushi
▁Rebecca
▁ingredient
▁Johnston
▁tensile
▁Preston
▁barb
forum
Linux
▁reviewer
nea
SMC
▁cosmological
▁gum
hedral
history
▁feminist
▁Chandra
▁excellence
▁clerk
efi
manager
▁calculator
ucker
▁contaminated
mentioned
QD
▁Troy
wrapper
▁holomorphic
▁candle
▁ladder
▁substituted
же
bai
Load
▁Rider
Opportunity
▁histone
▁Georg
▁Priest
▁Ada
UTC
OME
^*$
▁decisive
▁Composition
▁Antarctic
▁confess
Gar
brow
▁methodological
▁bovine
▁elicit
▁hike
▁folded
latin
▁Stro
uko
generated
▁pound
▁vendors
Institut
GAN
ppel
▁Bomb
urin
▁payload
caster
▁incremental
▁reinforce
nach
▁quarters
▁Important
▁Dunn
▁Sequence
▁NAS
▁Darwin
vill
▁Administrator
tak
▁binomial
▁Clan
located
▁suits
▁unfair
Where
microsoft
▁threatening
ør
▁Casa
vio
ozo
▁illustrations
organized
≥
▁unsure
▁emit
nem
▁Uruguay
▁Cambodia
▁vaccinated
▁assure
▁truncated
▁preceded
▁marijuana
▁Cath
XR
▁aromatic
▁Jenkins
▁departed
Framework
▁divert
ме
Met
urg
▁biomarker
Change
▁Securities
▁Pea
▁tires
▁Dust
▁Entry
McC
▁Belarus
ISE
▁sometime
▁coping
▁Bash
▁cooked
▁Ske
▁Increased
▁academy
▁workload
bak
▁Avoid
▁openly
▁runtime
saw
▁autism
▁Kane
▁incentive
elen
▁pharmacological
▁Interstate
▁translates
▁hostile
ontology
▁pas
theoretic
▁Thur
entity
▁Blade
▁exponentially
▁apologize
▁Jiang
▁eligibility
▁lol
▁biosynthesis
▁Brig
▁(~
▁doubled
▁delivers
▁Changing
▁Gift
▁Mercedes
▁Herb
american
▁govern
É
personal
mitted
▁stabilize
▁Restaurant
▁summation
▁Guru
Cell
standalone
idium
scopic
▁resembles
pli
▁Annie
▁shipped
▁hoc
▁reluctant
esteem
fluent
▁fragmentation
▁licensing
▁collectively
▁Copenhagen
playing
▁Promotion
trim
Estimate
separable
eering
arth
▁Interesting
▁priests
▁Literary
▁transgenic
▁valuation
▁interim
chair
▁Peri
Feature
▁judged
solve
Application
TYPE
▁Strait
▁Creation
Client
▁Coffee
▁Amateur
jon
colour
computer
arius
▁collide
▁Differences
▁infarction
▁relied
INTER
▁verses
▁interrupted
▁Cotton
male
▁Coin
▁caring
▁Manitoba
onder
▁incentives
Last
▁playlist
▁tailored
▁regimes
▁traders
▁Benefits
▁recipes
IAL
▁sculptor
▁subordinate
▁underwater
▁yoga
▁Alf
▁ESPN
▁relieve
▁Provincial
▁resign
▁persistence
▁transforms
▁Merit
▁advocacy
▁Thing
ogue
▁confer
mem
▁Moss
▁hyperbolic
PW
owitz
▁finishes
▁constrain
▁carved
tani
Rock
▁Satan
▁Saa
▁limestone
equal
▁Georgian
▁revenues
▁LDL
▁Olive
tolerant
▁supposedly
▁Perspective
▁Rip
▁Scholarship
OSS
▁possessed
▁prosecution
▁detectors
▁Grammar
▁fasting
▁fog
▁Flame
▁deter
▁Lyric
spira
▁Apo
▁Employment
▁skew
▁CYP
▁Pun
Level
▁Brewer
▁blockade
▁mob
▁Poli
▁Pastor
▁tonight
▁assurance
▁balancing
REG
▁SAS
▁Notre
▁enlarged
IRE
▁tweak
▁accredited
▁passwords
▁Git
▁Moment
▁Papers
▁Thirty
▁superficial
RON
▁thou
▁Resort
▁wizard
▁furnish
▁Bron
▁DHCP
▁compress
UTF
▁tributary
▁Thie
▁finalist
▁ischemia
▁broaden
▁Drink
▁opioid
▁AUC
▁oscillation
▁Windsor
EED
opus
▁locomotive
▁exports
▁AWS
Bank
IGHT
geometry
▁Prophet
▁mixtures
▁completeness
holding
igen
given
▁lineup
USER
▁Ley
Bill
▁observers
ammo
thoracic
▁Scripture
▁reef
▁Wai
▁shrub
tuck
▁Stoke
aden
▁Esc
▁finest
blob
France
▁saddle
▁Candidate
▁lowering
▁Strat
▁soup
iform
▁straw
▁armies
agged
▁Behind
tner
▁ferry
ór
▁voiced
▁boarding
aph
▁jacket
▁acetate
▁mosque
▁Mint
FV
▁socialist
▁counseling
▁adviser
▁Luna
▁Gain
▁Wesley
▁incorporates
RET
▁estrogen
▁GMT
▁monocyte
ación
iron
▁computations
▁towers
▁Dental
▁Saskatchewan
▁moist
TAL
▁Bolivia
octa
▁laying
▁pairwise
ecca
▁Albanian
▁Mori
▁genomes
▁Kenny
▁Kul
toxicity
▁Thorn
hello
respond
▁sexually
▁rescued
▁Discover
▁indicative
▁sf
▁bark
▁humanitarian
▁hazards
paw
mobile
aylor
▁committees
▁delegate
▁Presbyterian
Admin
▁Inner
▁Wh
XY
▁renewal
▁stigma
▁prospects
nath
▁Shark
aspx
rise
▁Sergeant
▁strive
weighted
▁stabilization
▁Burns
▁Arms
▁Eg
fun
▁Whatever
▁Oral
question
▁volleyball
▁exported
gz
▁illusion
▁Schmidt
▁flowering
▁resides
▁Frankfurt
▁Isn
▁poses
Off
ece
▁Dayton
^{-\
▁Geographic
▁Manufacturing
▁autoimmune
▁intermittent
▁Heroes
▁Fraser
▁Milton
debian
▁gradients
▁Shiva
▁realised
▁destinations
▁Consul
▁Bah
▁ridiculous
LIC
▁clergy
hwa
▁Edited
▁Revolutionary
▁Hugo
Sun
▁unaware
▁geometrical
▁retaining
▁Operating
gression
▁victories
▁/**
▁Ost
▁Behavior
▁branching
editor
▁inevitable
esque
▁CAP
▁augmented
▁Increasing
▁Default
fluoro
▁imprisoned
▁digestion
▁leisure
nee
▁Sexual
GER
▁urged
▁Rocky
▁honestly
chev
vote
▁Pressure
▁turtle
▁François
▁preventive
▁Characteristics
▁pesticide
▁indexed
▁∇
Buffer
WH
famous
Kar
▁Jur
▁relegated
▁KS
▁Gym
▁Edmonton
▁vest
▁icons
physiological
closed
digit
ych
▁Hiro
rhythm
▁Superior
QUE
▁intern
HOME
anning
sourcing
▁pitched
marine
Leave
Ku
▁Skills
▁Malta
Label
▁Chronic
▁Soil
▁canon
▁Combined
atology
▁addict
▁Qa
dual
gency
tik
nad
utf
▁struggles
translational
▁overflow
▁handler
▁signalling
▁entrepreneur
▁executable
Mc
▁performer
amma
▁penetrate
▁inductive
wil
▁verbs
Health
business
▁Beast
rze
osity
▁adhesive
sensor
▁ladies
▁Prospect
▁glance
▁Cardinals
sdale
▁Colonial
▁Benedict
▁fuse
▁SNR
▁Payment
NES
▁formulate
mai
▁ammunition
▁Cowboy
Project
Entity
Martin
nvidia
queue
▁Context
Process
▁slices
▁Sup
▁Hun
aemia
arse
▁Copper
▁siRNA
bha
attack
▁bout
▁Gates
agu
vier
drupal
▁promotional
login
▁continually
▁recognizes
▁dissipation
wara
CCC
olli
STER
▁Wyoming
▁homotopy
▁repetitive
▁Yoga
▁albumin
▁massacre
EXT
▁furnace
▁displaced
directory
minded
▁Manila
district
▁Zam
▁coordinator
▁fibroblasts
▁CMS
▁ERA
▁lookup
▁Beer
▁nationalist
▁Luxembourg
▁cytoplasmic
▁Ign
▁installer
hyper
DMA
lett
▁wifi
▁supra
▁Label
▁bake
▁Monroe
wir
▁discarded
▁ornament
▁commemorate
▁probabilistic
▁Stre
▁rebuild
▁JSON
EMA
ön
▁plugins
▁scout
▁dressing
▁Elliott
▁Shri
direction
meaning
▁controllers
▁unconscious
mund
▁accomplishment
▁Torah
▁Springfield
wait
▁tyrosine
igi
▁degenerate
▁android
▁excerpt
▁incorrectly
▁encoder
▁accretion
Default
▁Treat
▁Lov
▁Recreation
▁Sharon
▁Dominican
jor
▁invariance
▁Kashmir
MOS
Prob
▁Electronics
MER
▁banana
▁cohomology
▁litigation
▁twisted
▁poker
▁Malaysian
ADE
▁lengthy
terra
Width
Neill
▁endless
kir
▁deadly
ви
ulous
▁asymptomatic
▁accession
▁pip
▁Burke
▁manifestations
Family
▁hollow
▁spheres
exit
gill
▁porous
▁frontier
▁Asset
PAGE
▁factories
▁stain
▁hydrogel
▁Biological
▁Sword
retin
▁Chance
▁Equi
▁damn
adjusted
eja
▁eaten
▁Approximately
▁archives
▁solder
▁Claude
▁Drew
loo
▁cohorts
undi
▁holo
▁Chess
▁iconic
Thank
CHA
▁Dee
fresh
▁administrators
▁Eden
▁torsion
ми
▁dé
▁ascertain
▁invertible
enc
DAC
▁encourages
▁Monitor
▁stiff
▁Lynch
USS
▁Maintenance
▁thrombo
inae
▁oppose
Current
HCl
icity
Title
▁Deco
▁rhetoric
▁ministers
ц
Record
▁recreation
▁acquiring
▁Polar
▁Speaking
▁usable
▁warnings
▁twentieth
▁Surrey
▁Relative
------
ве
beamer
▁Mick
▁ideology
▁hygiene
▁migrated
dah
▁abstraction
fair
▁SMS
▁~/.
enius
▁aquatic
▁psychologist
▁ablation
anji
hound
▁Marion
tera
▁ECM
icker
machine
hausen
▁beast
▁migrants
▁Plymouth
▁deleting
▁Nadu
▁kicked
Tom
▁Cyto
▁fancy
▁Lancaster
rice
▁Manufacturer
Protect
pressure
▁RAID
vik
▁Ride
azine
▁SIM
▁OFF
kowski
▁ambition
▁cytotoxicity
roman
▁ambiguity
▁recognizing
▁Moor
▁formulations
▁Applying
']['
burst
▁envi
▁Minneapolis
▁medial
▁Lys
▁ruin
▁gameplay
ience
▁prosecutor
▁midfielder
▁Detective
grant
▁arteries
PubMed
▁capacitance
▁unwanted
Shi
hopper
▁educator
▁exogenous
▁Demon
▁Mira
▁asteroid
vc
▁keyword
▁Syl
hala
▁Bears
▁wagon
▁Ferdinand
▁Rust
unter
▁profitable
▁parasite
iang
▁Painting
quot
oste
▁outflow
▁Citation
▁Qatar
▁spatially
▁entrepreneurs
▁reversible
▁triumph
▁Herr
▁ionization
▁contracted
▁conflicting
▁capacities
▁nineteenth
▁monoclonal
▁jumps
▁bundles
▁rivals
giving
▁imperative
lake
▁Fruit
▁Cham
▁Extreme
▁attractions
▁processors
responsive
▁CSF
▁favored
MAC
▁Drawing
▁Consistent
▁volcanic
▁Yugoslavia
▁crater
Jun
▁Lud
▁overload
▁salmon
▁handy
ANS
▁Tasmania
▁boyfriend
ча
touch
▁awkward
illus
▁Identity
visual
True
▁Waste
ylated
idia
▁advisory
▁Mohammad
nock
▁acclaimed
▁immigrant
▁pyro
▁emitted
▁Manor
IAN
▁rebels
▁Gö
statin
itra
tium
▁Guatemala
▁logarithm
▁quotation
▁Anniversary
▁Legislature
▁taxpayer
▁Hou
▁torpedo
Robert
gall
Psych
▁disturbances
▁adventures
YA
mechanical
▁subtypes
▁Admin
succ
▁frustration
uja
clip
▁pharmacy
▁reliably
▁Till
▁shine
   
▁Griffin
▁chromosomes
CIS
▁Lund
▁Gothic
▁merging
pathy
▁Holly
▁molar
▁congenital
▁Avi
tele
▁Bottom
many
▁semantics
Doc
▁seventeen
▁seismic
▁Saga
pheno
▁relativistic
[#
▁Myth
▁grounded
▁facilitated
▁Patent
}_{\
dul
▁Rochester
▁HDD
▁lend
▁Roma
quarter
▁facilitates
▁Correct
▁Quint
▁gait
▁annotated
▁Felix
▁logarithmic
▁Snap
▁instantaneous
aea
junction
▁injective
harmon
riya
▁delegation
dimension
▁Santos
▁Magnetic
▁Recognition
▁depot
rising
▁imperfect
▁correlates
hist
▁idol
▁stunning
▁Elite
▁Lap
rani
yev
▁testosterone
▁rooted
▁polite
▁shortened
▁Pir
lust
elis
▁Wat
▁gently
▁Extract
torial
})^
quat
▁Partner
▁trash
yro
Total
kol
▁Á
▁mansion
facebook
trade
▁Shape
Term
ready
▁Kick
Arg
combe
dice
▁automotive
application
▁pirate
▁omit
▁sepsis
accept
▁Horizon
ophy
▁isotope
Rob
fasci
▁enzymatic
▁replies
})\
▁depressive
▁sandwich
mentation
éri
More
▁analytics
▁Amanda
▁Walsh
modified
dagger
▁welcomed
China
facing
▁ruins
▁Hale
Mode
▁beloved
================
▁activating
▁guardian
▁constituents
dead
reviewed
WL
▁inclination
▁evidenced
▁Hannah
▁Seoul
sometimes
▁Brave
▁Victory
inski
▁Plasma
▁dispersed
cult
Sur
▁Cron
▁facilitating
unde
▁dislike
▁Institutional
children
▁translocation
atz
▁publishers
▁choreograph
▁Animation
jj
▁spectrometry
▁cytotoxic
enger
library
▁epitope
▁Ashley
▁Catalina
▁LGBT
amara
▁indications
▁assured
qPCR
▁Infrastructure
▁affection
EW
▁museums
Right
▁delicate
cilia
pkg
▁cosmetic
▁GNU
▁kilometres
icide
▁milli
▁yearly
▁Earlier
▁divides
▁rationale
▁modulo
▁dismiss
▁Jorge
\|_
▁disclose
tung
kul
▁avoidance
tribute
odium
▁Certain
▁presenter
▁vault
▁uneven
▁Dorothy
pH
▁Jal
▁ecology
▁expresses
compare
Instance
OVER
▁Isabel
shadow
▁terrorism
▁Bruno
nose
ardi
jour
▁disappointed
▁inspect
▁humid
intel
▁spectacular
▁Clara
▁watershed
▁Christine
ossa
REM
cause
window
▁Matsu
fitting
▁IDE
erine
adv
▁cytoplasm
leading
▁condemn
▁pills
along
embo
selected
▁Elm
▁foil
▁Hap
▁Trouble
lington
▁militia
▁spp
▁Zhao
lution
▁saxophone
▁flourish
phosphoryl
these
▁Homo
▁Eat
amazon
cera
viz
▁Brighton
▁carpet
▁Janet
▁NPC
William
▁Devi
≤
pci
▁retard
▁prose
▁coral
▁discriminate
▁lodge
▁fond
▁firmly
▁violated
🇮
ACH
▁divorced
▁NYC
▁ranch
▁traced
▁EPA
▁peasant
▁symptomatic
strip
grove
▁obstacle
conscious
▁Pull
▁Cassi
▁hose
▁Dil
INA
convert
▁broadcaster
▁dissertation
reading
mah
▁communicating
▁Structural
▁Mystery
▁drastically
▁overlay
▁Seems
▁nonprofit
▁Bedford
ин
▁Floor
hardt
▁anatomy
▁Noah
▁interpreting
▁fonts
▁snippet
▁groove
▁weld
OPE
pressive
▁Woo
▁Abd
▁ethnicity
▁Whole
aug
synchro
Uni
▁uniqueness
▁freshwater
▁Ludwig
▁applicant
BY
▁Goals
▁apoptotic
▁Tunisia
▁Prayer
▁CBC
ivist
▁Oslo
▁lacked
▁fox
CHAR
▁lipids
▁Whilst
▁Practical
▁Patricia
▁unlimited
▁helper
Donnell
▁Whenever
▁schizophrenia
▁coached
▁turbo
▁scholarly
▁wool
grin
▁Nikola
▁CNS
▁Doppler
thick
Status
▁при
▁erase
▁Northeast
stranded
ál
ummy
▁Corr
▁Holt
▁Colour
▁Arrow
worthy
hong
His
manifold
▁monarch
▁economically
▁reviewers
▁Failure
▁solver
Plugin
rius
▁Pump
▁Trading
URE
▁Recommend
distinguishable
hibi
▁Collective
mounted
▁wipe
▁Harbour
▁Pair
Illumina
▁Headquarters
▁Estonia
CSC
ceptive
▁shocked
▁semifinal
▁Cate
ahu
▁passages
▁excavation
▁undergone
▁plead
Show
▁turbulent
▁Dynamics
▁intentionally
STA
▁Sherman
TIC
gating
▁inherit
uploads
▁taxonomy
▁traumatic
ishi
▁Butter
▁sept
▁spleen
▁notorious
▁ROC
▁Roe
euter
▁modalities
ordination
▁Arri
▁dedication
▁cracks
▁Zach
▁Rica
▁Blind
▁Zar
▁Contribution
▁Enhance
tape
▁Stakes
▁Values
ENCE
▁compliment
▁diarrhea
▁Identify
▁Quest
▁Tir
▁remarkably
▁Birthday
▁dashed
otto
▁Herman
leuc
▁Scots
▁degeneration
▁🇨
▁Qing
▁Hopefully
▁Optical
hopping
▁seeded
clinical
coupled
▁Lauren
pixel
guided
▁Expo
▁commutative
▁Stick
▁invade
…”
citation
▁Alexandria
▁Researchers
essa
▁Neural
▁Transform
▁dubbed
▁directing
▁nonetheless
▁harbour
▁converse
forest
▁Trustee
▁tracing
▁Boolean
▁bats
▁wellbeing
▁centrifuged
▁Bei
▁Created
▁vertically
▁Memphis
▁Lucia
▁Randy
▁swimmer
▁preserves
frag
▁factorization
▁Finish
▁RPM
customer
inson
▁Democracy
formal
▁waist
photon
▁Norton
▁Difference
▁fluxes
▁redesign
▁Mesa
cruci
▁Revival
▁Carn
▁IRS
QL
median
lium
▁Newman
Ray
▁Occ
▁cab
▁Assay
Folder
▁checkpoint
▁Graf
JS
▁Sofia
cited
▁smoothly
▁Ré
▁biases
▁uninstall
▁Fighting
fulness
▁Arsenal
chart
typing
misunderstanding
Password
▁Comparing
▁paradox
▁Jung
▁Syracuse
▁intensities
▁RGB
croft
▁Mali
uniform
neck
clockwise
▁platinum
▁congress
▁boxing
acting
AKE
SES
▁miners
gne
▁apartments
▁crest
▁ambitious
▁histories
ARI
iku
▁lever
omycin
▁regain
morpho
IPS
▁Alexandr
opping
▁mitigation
▁murine
deca
▁weighed
▁Reality
▁characterised
▁Angela
▁educate
▁liable
▁periodically
morphism
▁condemned
▁genres
role
▁Edwin
▁remedy
▁esp
▁Weapon
▁usefulness
▁Rescue
▁Maple
▁Slow
racy
▁applicants
▁starch
▁diagnose
▁Mam
▁Hundred
▁Examination
supported
actin
nix
fine
evich
▁chef
▁dividend
▁Modeling
▁Appeal
▁Slovakia
▁grub
▁Sacred
ADA
hide
▁effector
▁constituted
▁volatility
assisted
evolution
▁electrostatic
major
▁declining
▁smokers
▁Divine
▁ARM
Trigger
▁restoring
terdisciplinary
▁COPD
▁Increase
BSD
Second
logger
▁Buddhism
▁turbulence
compliant
▁associates
▁Sak
▁meantime
▁Baldwin
▁ein
▁Cata
▁Kad
▁Cau
▁Tier
dun
diff
 
▁appendix
▁Roland
▁appealing
▁namespace
▁hybridization
▁suspend
▁tactical
▁Koch
=[
▁haul
sequence
Mont
▁toys
▁inherently
▁ibn
▁wished
native
permalink
бо
▁pollen
▁uncomfortable
▁diocese
ová
▁staged
▁Cornell
▁constituent
▁Nicole
▁Diagnostic
▁barn
voca
▁Floyd
▁Experiments
▁$$(
▁aggregates
Aldrich
▁Leigh
problem
▁guiding
labor
▁tracked
vag
TEN
▁Frei
▁Guil
▁clustered
▁Stern
▁USSR
▁mushroom
▁puppet
▁Cran
▁programmed
▁Tak
gnostic
Play
▁Tribe
▁revolt
▁replicates
▁Frequency
▁rapper
▁Diabetes
▁Emmy
▁Santo
▁destroyer
anja
▁kW
Real
▁Hung
GV
Year
ROW
▁Hayes
▁rhe
▁Extended
▁Afghan
🇹
▁Tao
▁retina
mouse
coated
SET
▁rankings
▁decor
▁Yuan
▁penis
rena
▁Meadow
▁Venus
otoxin
Local
▁NGO
atten
▁Episcopal
▁sensible
▁Across
REC
▁Kho
unny
▁Alcohol
▁Emp
▁accessories
Luc
▁distributor
▁aftermath
▁Willie
perturbative
▁qualifications
assuming
▁epithelium
maybe
▁intervene
▁medicinal
▁suburban
perl
French
▁Deutsche
▁ugly
▁outlook
parametric
appa
▁Alien
▁Wyn
▁Nil
▁customized
quist
illion
▁Concord
▁Equal
▁Cliff
▁Lithuania
▁Beg
▁Lung
dhar
▁eine
▁automorphism
wrap
▁interpreter
▁sympathetic
▁Portrait
▁avenue
Ireland
electron
▁Hoffman
▁Bac
▁launches
▁hedge
▁Lamp
▁cathedral
▁Continuous
▁Gandhi
▁Parents
▁Mina
▁Drake
▁Jobs
▁crap
▁Sprint
▁magneto
▁biodiversity
lithic
elman
▁arguably
▁disconnected
▁shareholders
Franc
Vol
▁Azure
▁Goal
▁Wheat
▁Kerry
URI
▁AAA
▁NAT
Sync
uckle
▁lips
▁Earn
hag
▁Distinguished
▁mellitus
raja
▁Blender
▁Observatory
Price
opsis
▁endangered
▁NGC
rau
▁Yemen
▁metastases
depleted
▁beaches
umab
▁Founded
reactive
pura
▁newsletter
WORK
City
possibly
▁boring
token
FET
▁Plum
▁consolidation
▁Rie
▁Marina
▁cheat
god
▁sneak
ción
john
▁Delivery
ongo
▁codon
▁Specialist
▁Spr
structural
▁consonant
▁drilling
▁appointments
▁illumination
▁Ballet
mbre
▁aerobic
paid
▁wastewater
▁Tian
▁Thermal
▁curiosity
▁destructive
▁Indies
optim
▁Sally
▁architects
▁Jets
▁parasites
BJ
▁Paradise
▁Pioneer
▁motivate
liver
▁ANY
▁Princip
turing
▁Plastic
BMC
▁cows
arina
▁Incident
dging
RCC
multicolumn
▁eruption
▁Marshal
▁Luther
depend
▁visualized
itate
Boost
▁OBJECTIVE
▁enlighten
▁courtesy
▁methodologies
▁mentally
▁deterioration
▁cognition
▁mythology
▁constructor
▁constructive
▁topical
▁Angle
Store
million
cord
greg
illon
▁chaotic
unix
]`
▁pharmacist
▁shaping
▁IRA
available
▁Tunnel
▁Domestic
Schwarz
▁delicious
▁descriptor
▁upgrading
▁bride
▁Teen
▁Nun
ulent
▁Amazing
▁Veterans
▁adolescent
▁Acting
▁garbage
▁glacier
icum
▁lawn
packages
Take
▁playwright
▁Pond
ogh
▁depicting
HAN
▁Gaza
▁Ava
solving
Child
▁Normally
▁gastro
▁lithium
▁boolean
▁awful
▁revelation
▁reflex
▁Movies
utta
QUI
Calc
▁chassis
▁relativity
doped
▁surveyed
▁NASCAR
▁Seal
▁advocates
▁Lem
▁flare
President
▁stalk
▁Reserved
capture
▁Brady
mathsf
floor
inen
▁epigenetic
electronic
ń
▁pumping
emulsion
▁Settlement
desc
leader
▁fellowship
moving
▁Pretty
matter
▁warranty
▁celebrity
▁plaintiff
▁Rib
ци
settings
fixed
▁slaughter
▁Excellent
EMS
▁foul
Embassy
▁swift
ASP
panel
▁Designer
▁Ladies
▁servants
Length
▁@@
▁transfection
▁scam
COUNT
agne
symp
learn
▁implantation
▁nuts
▁decoder
▁Supplement
▁recovering
▁counterexample
▁Released
▁implants
NOT
▁grill
Activ
▁RX
▁electrochemical
▁circa
▁Hits
▁planetary
▁hardness
checkout
▁Saturn
▁Boo
ahi
▁%%
▁uncover
▁specifying
▁potato
▁crushing
often
▁hometown
zur
▁Dome
bara
lak
DIR
▁Roo
Def
▁rotated
▁enacted
▁Liquid
чи
visor
▁Mineral
▁phil
▁grind
▁Noble
▁isotropic
analytic
си
▁Organic
agging
SHA
ibe
burgh
▁clash
▁Belfast
▁stitch
▁Wong
chromatic
▁discomfort
▁retiring
▁cytometry
▁cuisine
▁tragedy
▁idle
▁Honorary
cutaneous
Cam
_{-\
▁multiplying
▁monsters
lasting
▁Quantitative
▁devil
▁snack
slave
▁Wish
▁Galactic
▁vanishing
vera
▁Yard
▁miracle
follow
▁citations
▁Advisor
▁geography
▁advent
▁Heather
LIN
▁multiplier
▁Islander
▁damping
▁touchdowns
▁concomitant
▁safeguard
▁financially
ugg
egreg
▁squeeze
VAR
▁lipo
▁Successful
▁ECG
Down
stabil
▁improper
▁irrational
▁Gibbs
▁Enjoy
benzo
▁Subjects
LAS
ibi
▁Nottingham
▁fundamentally
tico
▁subunits
UNC
▁strengthened
▁Spiritual
▁Coco
CAP
▁devastating
oscope
▁traverse
▁Income
▁securing
▁Brief
▁flute
▁Fortunately
centre
valu
▁Theoretical
mathscr
▁Maritime
Arch
▁denomination
▁geological
▁BCE
▁tendon
Nav
Byte
▁statutory
▁negotiate
period
▁Cavalry
▁Daughter
▁Valentine
solved
ATCH
polymer
proxy
▁segregation
▁generality
▁Salem
London
▁alkaline
▁certainty
▁porn
education
IKE
Dan
▁prevail
▁insisted
▁Cosmo
▁Morph
▁underway
description
▁Rough
tune
▁Pav
▁ligament
molecule
professional
plast
▁selectivity
▁overlooked
▁coincidence
▁hospitalized
fibril
▁organise
▁seizures
▁undermine
▁southeastern
EFI
▁applicability
▁voter
▁accusation
▁disguise
▁peel
▁disadvantages
▁specifies
▁teenage
▁advert
infection
▁supporter
STE
▁clarified
▁axon
▁Artificial
▁fierce
▁Levin
▁watches
▁hydrodynamic
▁Logistic
▁RFC
▁magnesium
mori
▁maritime
▁Pride
usta
▁malware
▁heel
lfloor
▁evaporation
▁QCD
▁expired
Please
▁Cairo
▁Devices
lein
▁darker
cake
bytes
▁inhabited
▁Gaming
ube
▁GmbH
VAL
▁Riv
▁approximated
▁guideline
▁fetus
)$?
▁Tucker
▁Mice
ohn
DOC
▁stratified
▁Breast
unless
corr
▁Ready
▁Balance
▁Numerical
username
▁modelled
▁Reporting
▁dome
▁decrypt
▁racist
▁Visa
erating
▁exempt
▁capillary
aldo
lique
▁Dress
yng
▁angiogenesis
▁elbow
centered
▁collar
▁forecasting
eger
▁unavailable
▁versatile
hoff
▁absorbance
rfloor
▁allergic
▁wholesale
▁Healthy
▁Wake
▁Qi
ffff
▁Julius
gata
▁conquest
omato
▁Netflix
▁Phantom
▁Monk
▁bubbles
▁Poet
▁cooperate
▁decoding
nomic
▁bust
pillar
▁imprint
▁Jew
▁Guidelines
▁auditory
▁volcano
▁collaborate
ejo
▁imprisonment
internal
ordina
angled
lion
collect
Full
▁accountability
nio
▁remodeling
▁Wade
▁fortress
▁stent
former
fare
▁keV
import
ecker
▁Brom
Format
▁Monica
▁progressed
▁assassination
▁resultant
né
bund
▁Missing
▁Kala
▁Rhodes
Begin
▁Ferguson
▁Correlation
uw
itzer
ević
▁attenuated
▁Hind
essential
▁Vijay
▁CDP
▁tattoo
▁steadily
matched
tir
▁reciprocal
▁bloom
▁shooter
▁quarantine
guer
▁Pseudo
pio
tana
soluble
▁sanctions
▁wondered
▁abbreviation
▁Intervention
▁Colony
▁Albany
zzy
▁adjuvant
▁creek
Graph
Dimension
▁pertaining
▁про
bili
atti
Look
▁Cong
ibo
▁broth
▁Known
▁endure
----------
bey
▁Rear
▁Superintendent
▁surgeons
▁jersey
▁Combining
▁finale
▁Trevor
▁##
▁harvesting
▁batter
▁posture
▁Basil
proliferative
AME
concept
▁exemption
▁Ear
acetic
anca
▁disbanded
▁eighteen
radio
▁Parkinson
Curr
relative
▁cooler
▁somatic
▁goalkeeper
▁Forbes
diver
▁Trap
▁butterfly
▁Conc
▁MLB
▁corona
rar
▁Cherry
▁audition
▁colonization
▁Mona
▁ACL
RAP
▁repaired
▁Tibetan
▁Lack
▁Baltic
▁irrespective
▁permutations
CSF
▁vaginal
▁lately
▁seating
ADD
▁inception
▁Speedway
▁activates
▁Permanent
▁stretched
dele
zol
▁Welfare
illian
acro
▁Joyce
▁seizure
▁Pam
bir
▁Comparative
▁grief
▁Dollar
▁Serie
▁ASD
Tree
Sec
▁synchronization
▁Landscape
▁Greatest
▁provoke
▁plugged
▁unused
▁hamlet
above
carb
Will
▁spear
▁Gardner
otropic
▁Freeman
RIA
▁dans
▁Hole
▁topped
▁Mohammed
acher
▁Yankees
gau
fran
▁edema
▁notebook
protective
▁lazy
probably
▁Griffith
▁Vatican
vern
ptr
instance
▁pivot
▁nickel
▁Rising
▁cassette
usb
▁Numerous
DAR
▁Jackie
IMA
rake
▁Colla
▁Kazakhstan
ffen
▁Quartet
▁republic
▁>>>
▁workout
rub
renewcommand
▁detrimental
▁discard
VAC
▁scripture
▁glutamate
▁contend
▁Founder
▁veins
▁allowance
▁VAT
(-\
iji
eux
▁comprehension
▁epidemiological
ipple
bold
▁Louisville
▁Quinn
▁multiplicity
▁Horror
resolv
▁SPI
▁Personally
dns
AML
Declare
▁vintage
▁sine
▁Virus
▁prayers
helix
▁defective
▁Lew
mara
sampling
▁implicitly
OMA
▁refuge
▁Greene
▁plea
genous
unning
▁Von
▁Revision
▁utilities
∼
▁extracting
▁Vernon
license
ło
iscus
uchi
Christian
uric
▁proceeding
▁rename
VIS
▁hydrolysis
▁captive
▁desperate
▁Constitutional
Pop
▁adenocarcinoma
▁Medicare
▁ancestor
opped
community
▁suffices
cred
windows
▁Acute
▁reminded
▁deduction
▁depiction
▁stationed
iae
▁Parallel
Align
osome
▁lime
▁flatten
▁Superman
▁quota
▁convection
▁thriller
▁Gir
▁Frost
▁landlord
hani
▁Castro
▁AFC
guide
▁Riley
enbach
ORY
▁pencil
▁multiplex
▁Uncategorized
▁horrible
ité
▁ideally
acci
▁endorsed
▁Colon
Here
▁civic
▁Donna
▁Fusion
▁THIS
imag
▁vesicles
▁BTW
▁sixty
yuan
▁Presentation
▁chew
▁pelvic
},{
give
▁lncRNA
▁Roh
motive
uji
▁obsolete
▁Choir
heng
umba
▁lemon
▁Critics
▁spelled
▁feast
▁gravel
▁Ernst
osine
Handler
communi
▁Meg
created
uncredited
▁Brett
▁descending
▁apical
▁Cedar
▁tonnes
▁Partial
Host
▁narrator
###
Final
▁Reagan
▁Said
▁depressed
▁fluctuation
▁Failed
▁Purchase
▁retract
ANG
▁blades
▁resolving
▁milestone
▁perfusion
wm
▁encompasses
▁tales
▁northeastern
▁Interactive
cou
ASA
▁Crusade
▁complained
changing
▁Gat
arab
▁combinatorial
▁Charleston
▁punish
▁Jenny
▁karma
▁Immigration
▁Bene
▁Trying
▁LTS
__(
▁advocated
▁Instruments
▁goodness
▁axioms
▁endpoints
▁realizing
▁Lambert
▁granular
BASE
▁Brock
▁durable
▁Parliamentary
▁illnesses
▁selectively
▁Chern
▁woodland
▁salvation
▁relational
▁Serum
▁Secure
USD
▁Performing
▁Winnipeg
▁Navi
▁outgoing
▁Hampton
▁establishes
▁Judaism
▁Attempt
▁smear
▁listeners
FH
cour
▁Rebel
Mag
▁enforced
▁Aside
▁Tall
▁endeavor
Absolute
Multi
Scope
▁redox
▁phosphatase
Container
▁YOUR
gif
▁ensured
difference
workers
▁quartz
SIC
▁bargain
Arm
▁Rhy
▁mV
▁STEM
▁Winston
▁Fest
ergic
esch
▁Minutes
▁Mormon
▁bipolar
magic
▁LCD
▁upregulation
▁enlisted
\;\
tainment
uate
habit
▁MVP
▁Communities
▁cocaine
▁contig
▁Myanmar
official
▁subsystem
▁timeout
▁tomato
▁Bulletin
alone
▁progressively
ANA
▁Ethical
▁filler
▁Belgrade
▁stereotype
lund
asu
▁Tail
▁Vul
▁hemorrhage
Access
▁diary
▁Canterbury
▁macroscopic
▁guilt
lecommunications
▁sponsorship
▁recession
▁Negro
▁Rainbow
▁inhabit
▁Gott
▁suburbs
lade
lvert
▁immortal
▁spectator
drom
▁flagship
▁REST
▁Cannon
apper
▁Andreas
▁Differential
roach
▁adrenal
gray
▁Flood
▁Tale
▁Venture
▁Keyboard
gcd
▁Jill
▁Masa
▁readable
▁Cai
otomy
▁detachment
illard
▁Paint
▁PDE
▁deserves
▁swamp
lamin
▁qubits
aware
▁WSR
▁contractors
lmer
Miss
▁USC
Para
▁teenager
HER
▁rRNA
▁transducer
▁Twelve
▁blessed
▁Comic
▁groundwater
▁clues
▁vocational
▁Theodore
bec
▁triggering
▁Haz
publish
▁Gunn
▁Stri
Null
▁liberty
▁′′
▁haemo
▁mucosa
▁polarity
▁mosaic
▁countless
▁María
▁dwell
▁Lok
Contin
▁Churchill
▁Vocals
▁downloading
▁corps
poor
chap
▁missiles
PEC
▁confi
▁exhibiting
▁ROI
▁CLI
prev
ACC
▁Genome
ocytosis
▁degraded
▁profiling
▁goddess
▁Monterey
crystal
▁missionary
▁memorable
Interface
▁occlusion
▁regularity
▁Casey
fund
anya
▁crush
▁supermarket
▁Boom
▁Budapest
Sort
qq
tiny
▁sovereign
urious
eem
argument
▁distilled
▁Indoor
elves
▁covariates
Psi
▁NOTE
▁nun
Å
▁calibrated
Tur
▁Harmon
▁Pom
▁Stark
▁Kang
▁Tumor
▁ordained
▁whatsoever
▁jumped
camera
YP
hō
redo
▁competitor
▁Nit
▁whip
▁delegates
SiO
▁GABA
▁optimizing
▁rivalry
omics
▁Hmm
evil
▁Liberation
▁WWE
▁Lima
▁Zhou
ectin
▁unaffected
aye
▁secreted
▁subtype
▁instinct
catalog
▁zombie
▁inexpensive
▁nuance
▁Thousand
▁jealous
▁antiviral
▁thrive
▁Encyclopedia
SEM
▁aluminium
▁circumference
▁Holocaust
below
▁Stalin
▁herbs
encia
▁denial
▁Coleman
afi
▁presidency
▁oval
▁ATM
▁Maharashtra
enthal
▁deeds
▁risky
▁Infant
director
lva
Supplemental
▁Gujarat
elastic
▁Diff
▁recruiting
▁blanket
▁neutrophils
▁disclosed
&&
▁Smoke
▁headquartered
aura
▁diagnoses
▁lesbian
▁Chapman
cialis
▁tragic
▁doctorate
species
focus
▁Doll
▁debugging
▁Gad
export
……
catch
▁elevator
acre
Proxy
feat
▁celebrating
▁buzz
▁torn
▁Discography
▁Facility
▁Troop
▁distinguishing
▁Syndrome
▁Hide
▁peninsula
▁MX
supplemental
significant
▁Kant
▁Bonus
▁unveiled
▁Naples
▁interception
▁Abbott
▁refusal
▁solubility
mental
ROS
dong
iidae
branch
▁restrictive
▁Brick
hedron
crop
▁Cove
▁dislocation
dependence
ENG
▁lifelong
processor
▁reflective
tronic
▁convolutional
▁Rav
▁Gale
▁Pirates
▁revisit
▁Underground
▁manifestation
▁divergent
▁Balkan
▁microstructure
▁Bonn
▁Noise
▁crushed
cliffe
▁wickets
Light
▁genius
▁Snake
recht
▁enthusiasm
▁Romance
▁tenor
cold
FER
▁Corona
▁noteworthy
coder
Empty
dermal
predict
oodle
ebo
vita
▁Evening
▁Gap
▁Believe
▁lump
▁vampire
ikh
phobia
▁disrupted
Stream
▁melody
addr
▁signifi
▁devote
▁presumed
▁inaccurate
▁hepatocyte
jah
chr
▁Peer
▁Terri
▁Optimization
▁;-)
▁consolidated
Pass
▁repertoire
▁practitioner
BERT
▁residency
ם
▁correspondent
▁Perl
▁Bolton
ор
abba
▁await
peritoneal
▁Clari
▁hotspot
▁confuse
These
thra
▁hover
▁duality
▁Analog
▁Certified
▁militant
Report
▁assisting
emacs
▁Nicola
▁Marathon
▁Elections
▁SEO
▁parcel
khan
osomes
▁Pediatric
▁grocery
rito
▁Doesn
▁adipose
macro
Lee
▁boiling
Prote
▁carbonate
▁precaution
▁Premium
▁awaken
▁southwestern
▁Downtown
▁Sonic
▁symmetries
▁ordinal
▁Malaya
▁reproduced
articular
▁Seminary
▁Rabbit
▁expelled
Email
▁Gateway
▁prejudice
▁Bella
▁settling
▁swept
▁whistle
▁Nixon
almost
cula
ranger
ocytic
▁Aut
▁entertaining
▁Monthly
▁discovering
bolic
▁Retail
▁pivotal
▁Zambia
▁imposing
▁pill
▁sovereignty
▁conductance
▁Heinrich
▁Phillip
▁Thomson
▁amendments
kumar
▁Fried
▁Lily
▁broadband
▁recount
▁rulers
▁allied
mnt
▁spindle
▁midnight
ivism
▁descend
▁loosely
▁Negative
▁EXP
▁reactivity
▁wording
▁kilo
▁Preliminary
▁liner
MHz
▁perimeter
endorf
▁Physician
▁wholly
▁collaborator
spring
▁subcutaneous
▁Fau
▁Eclipse
▁Universities
▁UFC
▁predictable
TES
owa
lun
Land
▁Damage
▁Congressional
italic
Contributor
Σ
▁devotion
▁successes
decode
ISC
▁Symptom
▁dummy
▁exchanged
▁ferment
▁Compound
▁hunger
▁NEAT
▁authorization
Law
▁catching
▁nitrate
▁methane
▁Weber
▁Shock
▁Crack
▁Shepherd
Media
laud
▁Rene
Auth
ampton
▁Barrett
▁Mikhail
▁Dixon
▁vacant
▁professionally
skaya
neutral
▁granite
▁borrowed
▁manor
acid
▁constitutive
▁Burma
fax
YM
println
ellen
▁hippocampus
Use
▁wired
▁Rafael
thyroid
▁fare
pure
▁Johannes
▁garrison
▁moduli
RW
▁Gao
information
▁rushing
▁Parade
agna
research
Leg
referred
▁subnet
▁screenplay
▁dispose
▁wives
▁utilise
early
▁cue
▁Pharmaceutical
▁abdomen
▁Vene
Great
▁societal
▁Willis
▁invaded
▁weakened
Sign
unta
typ
▁stripped
▁bounty
Stat
acha
▁presently
Batch
▁nontrivial
▁Towards
voy
▁undertaking
▁Aberdeen
▁evacuation
▁notify
Header
▁Jewel
▁retailers
▁prerequisite
▁webpage
TRUE
cline
CCA
▁harness
▁cloned
▁anticipate
▁refugee
▁tiger
▁Trio
▁Afterwards
▁welding
▁lysate
Alt
▁Rovers
RAC
▁muscular
Only
▁ventral
consul
▁Hear
▁Fischer
сто
▁Armor
archy
agno
gang
▁vigorous
▁Suit
▁suture
Daniel
▁Sold
▁chick
▁dawn
▁Nina
▁HDMI
▁enroll
Christoph
▁sooner
▁ubiquitous
▁dough
▁Biblical
▁unilateral
▁Ideally
OOD
▁holistic
▁Stur
Hop
abbreviated
▁roast
ARG
expr
▁frustrated
fee
▁Unable
▁aggression
▁surplus
existent
▁unofficial
Detail
▁intriguing
▁altering
▁rookie
middle
▁Appeals
ghi
nice
▁inspector
▁baryon
▁Aber
▁McCarthy
▁baking
▁Zoom
▁condensation
▁Accounting
▁Hidden
plicit
▁concession
junct
stained
▁Trinidad
▁uncovered
▁humble
▁Wise
▁Vocal
abri
▁Mud
▁Pok
▁miniature
marked
▁Alexandra
▁nude
rá
electro
▁Leh
▁nonsense
▁predator
CER
▁Clifford
▁Sharma
Library
MES
▁Correction
▁Analytics
▁quantization
▁Explain
technical
Init
zygo
▁Babylon
litre
▁Davidson
Statutory
logo
▁Wear
▁ballet
▁ebook
▁stir
visit
▁dare
▁postulate
▁Valencia
▁Mate
▁Kei
▁Hawaiian
Other
glo
marsh
▁sharply
▁accidental
dust
Sport
▁Cala
▁countryside
ERC
▁Fro
▁congestion
▁Lopez
▁chondr
▁Outdoor
protected
▁Koh
из
▁Coronavirus
▁Bean
▁hydrocarbon
▁nodule
▁announces
STAR
stimulated
▁Nacional
▁diploma
▁Silicon
▁Halifax
▁Swimming
gender
▁Antarctica
▁FIG
▁Putin
Little
▁weaknesses
ер
▁pistol
▁EGFR
clar
▁Savage
▁percentile
RIT
voltage
▁Survival
▁absurd
kari
APP
Pharma
▁Fry
▁Wedding
▁Conrad
▁Relief
▁что
ranging
Theta
▁Autumn
▁Katherine
▁Liv
▁Beatles
▁HCV
▁Pepper
LSTM
▁plasticity
▁Cameroon
▁radiative
cone
▁kinda
MED
street
##
▁AFL
▁Dana
▁conditioned
▁NAD
utation
▁slash
▁Pru
acca
▁batting
▁clutch
▁Diane
▁remission
▁elongation
YES
▁Stor
сь
▁lyric
▁contributors
▁spectrometer
nata
extension
▁stunt
▁Irving
▁marketplace
▁excitement
▁valence
league
▁Baba
DING
Serv
▁Peterson
▁Latvia
disable
▁Omni
signal
▁Wnt
▁Saba
▁secretly
▁Petit
▁cruiser
buy
▁epilepsy
▁Ensemble
▁Stamp
▁centralized
▁Zan
▁upright
IMS
racing
statistic
▁modality
▁Spell
▁aneurysm
▁charitable
▁credibility
amar
▁runoff
▁Providence
▁regularization
▁reconcile
▁Handbook
▁Giro
▁Tehran
NOR
▁Palomar
▁degrade
CES
▁penal
▁lepton
study
Http
▁personalized
designed
Property
▁Escape
▁framed
▁cheek
▁Purple
▁Chicken
ADP
added
blood
TURE
▁Favorite
configuration
Save
▁pharmaco
▁Opinion
DATE
hero
▁Treg
▁freelance
▁recreate
GAP
▁protesters
▁Manga
▁sulf
▁stud
▁cottage
Contact
▁Might
▁mating
▁intentional
▁weighing
jee
▁inertia
▁Rare
▁publishes
▁personalities
▁Oriental
▁dehydrogenase
▁tandem
▁Prediction
ISO
▁fairy
▁Coulomb
▁elucidate
▁disregard
czy
▁convoy
vale
()->
▁BACKGROUND
▁Satellite
▁Poems
▁helium
stasis
▁Jude
▁APC
▁Cognitive
▁Patch
lach
rö
▁RSS
▁Evan
▁Uncle
▁Reduction
▁endurance
▁Albania
▁ineffective
▁Broadcast
▁screenwriter
QP
▁messenger
▁allocate
▁quicker
▁Muk
Avon
▁herbal
▁monolayer
mania
▁Usage
▁Lombard
▁Mob
▁Moo
▁redundancy
▁inserting
Card
▁optics
merge
▁Killer
▁Malay
ijn
▁lexical
ajax
▁modem
▁McM
equivalent
enabled
arium
League
▁respiration
Shak
▁deteriorate
iyah
James
iche
▁mercury
▁Anything
▁Tissue
rada
▁Kemp
▁triplet
▁stairs
▁Finger
▁Sect
▁impair
▁Este
expand
▁Viscount
anov
▁multimedia
AGA
choice
▁poorer
▁appetite
▁longtime
▁cute
▁hinge
▁Percy
imper
▁poisoning
▁speculate
▁Boyd
▁STS
zig
▁solitary
▁dignity
▁Adolf
▁notified
FOR
▁voxel
integration
▁endoscopic
▁immersion
sharing
benz
▁Ranking
Argument
CODE
▁dissection
hospital
▁Muse
▁hiking
chill
▁enclosure
▁restrain
▁Paralympic
▁trailing
oslav
▁inpatient
▁anisotropy
▁Nearly
▁midst
FORM
▁sexuality
▁sequenced
▁Aur
▁Facilities
buster
▁Morton
Enter
▁Wiley
People
listing
▁radioactive
Φ
MIT
quette
umbling
itarian
▁Reverse
▁Archer
▁Clayton
▁ICC
SEC
▁Thinking
leur
▁steer
▁electrophoresis
▁Geoffrey
▁Patrol
Every
▁sunk
rado
schaft
▁Bald
▁Torres
▁Leicester
▁Vil
▁Ratio
▁immunization
▁encrypt
ение
▁datasheet
▁rabbi
▁Civic
▁UAE
▁enthusiastic
▁Laurent
▁inevitably
▁clade
Russian
MRI
▁outrage
▁promptly
▁Witt
ой
▁Brod
▁striker
▁Kaplan
▁behavioural
▁Grow
Resource
▁Tracy
▁syntactic
▁Bike
▁radii
▁Nicolas
Video
▁MPa
NX
▁McA
▁Ferry
▁preferable
▁Newfoundland
▁genital
censor
▁Dominic
osomal
▁JOIN
▁scanned
itol
▁Fundamental
▁detached
▁Hodge
▁Nobody
curve
▁Killing
▁Strategies
▁Membership
assign
Like
▁ceremonies
▁ideological
staff
▁grassland
oscopic
▁Pierce
▁issuing
▁McKe
▁slit
alanine
ophthalm
▁neighbours
▁Portal
PFC
▁moreover
trol
database
legal
ULT
cranial
▁patience
▁Wendy
Transaction
▁Slave
worker
Van
▁Assumption
▁soybean
company
treat
▁Principles
▁Wife
▁Hardware
▁navy
glob
basic
▁Clerk
gcc
▁inorganic
▁exacerbate
).$$
spatial
compile
IRC
NAC
memory
▁Seeds
CAR
Ang
▁deliberate
▁gran
AKT
▁bottleneck
▁trillion
bear
▁disappearance
ALE
▁Mechanism
▁phenolic
▁Marty
▁Leading
▁mixer
▁dissociation
🇸
▁slim
▁oath
▁Brass
▁infiltrate
▁Shawn
▁synthase
guchi
▁prioritize
mack
brown
▁amalgam
▁stint
▁Sage
Sea
wild
▁prominence
▁Chilean
▁requesting
▁Orient
▁Hansen
▁ESR
▁annealing
vestig
▁Barack
▁Beaver
▁virgin
▁droplets
▁incision
▁browse
gha
▁salinity
▁Plato
▁Wad
▁Penny
liner
▁Borg
grained
▁malignancy
ζ
▁concise
▁princess
▁Doom
▁airfield
saving
▁Keywords
▁MLS
▁opted
▁hazardous
▁advertisements
▁catches
Person
yet
▁Dodge
manship
▁timescale
▁Nordic
▁comparatively
iš
▁Graphic
▁biblical
DOT
▁Maker
Brown
▁macOS
microenvironment
istan
▁shuttle
▁predators
▁dissemination
▁facade
▁Transmission
homogeneity
▁spreadsheet
▁daytime
▁tray
▁Warrior
▁Carson
▁minorities
▁Flav
▁Siberia
▁vaso
▁franc
bigcup
▁staple
▁Bharat
oš
▁sera
▁insignificant
▁Safari
▁doctoral
▁Arabidopsis
yak
▁Walking
▁farther
▁Papua
theory
▁ultrasonic
▁reel
▁lifespan
obble
▁ignorance
▁browsing
Task
IFI
▁numer
wolves
natal
▁Sidney
Λ
▁Macedonia
▁Famous
▁Monarch
▁discern
▁Concerto
▁charger
pattern
Dev
crafted
▁tuition
▁piston
▁<!--
▁Broken
▁Alberto
▁confrontation
()`
▁Sacramento
Invest
▁battlefield
cov
▁Slam
▁consequent
▁hobby
amic
within
Canada
▁Joey
haven
RUN
Microsoft
▁Laboratories
▁Photoshop
▁scorer
▁Lowe
▁disciples
▁Assistance
▁teens
▁Duran
ič
platform
▁Serious
Bit
▁Pte
Google
▁Hyde
ratio
▁cessation
▁Wir
▁Kuwait
▁longitude
▁unfortunate
▁gallon
lua
▁leukocyte
"><
enchant
Any
▁gasoline
▁Telegraph
▁Electoral
▁Attend
▁Francesco
▁partitioning
▁polish
▁renew
▁Capacity
closure
▁polymerization
▁accompany
▁BRCA
▁forensic
▁Pep
cout
drome
QoL
keep
▁tubular
▁Chennai
▁Turbo
Frank
Engine
hren
''(
Unit
▁ellipse
▁shrine
▁mathematically
▁Champ
▁Fletcher
▁esc
▁shipment
▁Verde
ordered
▁forgive
▁Pitch
▁extant
government
correlation
efficacy
▁mould
SSA
affle
▁tighten
icola
tata
▁Warm
▁teenagers
▁Liver
(){
transfer
ungen
▁steroids
software
ossi
luk
adian
CMV
▁nozzle
▁mercy
▁Daw
ambu
obby
▁Ideas
▁conquer
culus
flake
stow
zione
definition
TON
Pacific
▁hydroxyl
▁tracker
Stokes
▁Supervisor
Non
▁northwestern
▁canceled
ар
▁augmentation
▁touches
bool
▁lending
▁bijection
testing
▁sender
Frame
tumor
▁remnants
▁influx
он
▁deprivation
▁pizza
imba
▁calories
garde
▁deci
receptor
▁strap
burger
currency
pak
▁Spir
▁postal
▁tornado
focused
fruit
▁Tonight
▁Certification
▁actuator
deoxy
Vendor
▁canopy
▁fuck
▁Shoe
▁pioneering
▁stern
fied
Jul
ос
▁symmetrical
▁Knock
▁Designed
WW
▁embassy
Network
▁Forrest
▁Booth
▁Mata
prior
▁functionally
▁Christina
iggs
cuff
▁microarray
omp
▁foe
▁mortal
misc
▁fortunate
▁Epic
▁transduction
▁supernatural
▁anemia
continuous
▁dilemma
▁divisible
▁prof
▁Seth
▁Assist
▁authenticate
▁Monkey
▁corrupted
▁Requirements
Tim
▁revived
▁Breed
▁Installation
▁liberation
reck
▁Elements
yellow
validation
Head
▁rushed
ipper
▁slogan
NIR
▁delight
▁Alto
▁feared
▁swarm
HEL
cpp
▁Congregation
▁HSP
▁confinement
▁detention
▁Ranger
Mad
▁flav
▁Abram
ogan
▁Valeri
colored
▁neurodegenerati
▁Paw
▁magnetization
▁Sterling
numbered
▁Helena
▁umbrella
▁Sophie
karyo
▁Accident
idio
▁Threat
▁hurdle
▁Canberra
▁replay
▁Carrier
▁Mayo
▁Sali
Cyc
▁SSR
NAP
Binding
Find
Sponsor
▁femoral
▁anxious
▁disturbed
▁avail
▁Leone
раз
▁Salesforce
▁Charity
▁Homer
▁Collaboration
▁Tomorrow
▁taxonomic
▁это
ć
▁synergistic
khar
▁Permalink
▁UNESCO
▁advertisement
▁Nagar
▁bassist
UAL
▁scared
▁Filed
bek
▁deaf
▁Dip
▁Hyderabad
▁Jesuit
ddington
▁Patterson
▁Suffolk
symbol
▁Forever
▁adulthood
▁Audi
CAD
contr
flor
virtual
cgi
vpn
loader
▁Passion
▁Synthesis
Force
ди
icia
▁flock
▁Forecast
alkyl
▁exhausted
▁Catch
vention
success
▁Yahoo
CID
textwidth
▁boxer
AMA
oja
▁smash
▁marathon
▁uterine
animate
uva
▁Countries
quark
▁fringe
▁relic
▁Aurora
▁fragile
zhi
▁swear
fam
▁Slav
▁Unix
▁declaring
▁tariff
population
▁Portsmouth
▁Lindsay
bike
JO
▁potatoes
▁microglia
arri
▁quiz
▁richness
▁assigning
▁Soundtrack
▁doping
ECO
▁petroleum
▁multiplicative
▁Nur
icial
▁overtime
▁Schul
▁assassin
antho
emptyset
▁Cyril
RAL
▁Stella
▁catchment
▁seamless
▁empathy
xyz
past
sufficiency
▁flora
▁numerator
~\
temporal
▁Katie
▁Commodore
▁dopamine
▁biomedical
▁jewel
▁waited
▁Merchant
Root
▁planner
▁subspecies
▁Travis
▁SAP
EPS
Design
▁Fuller
▁Humanities
▁Zor
▁Judy
variant
▁Surgical
▁banker
▁Talent
▁Escherichia
▁Halloween
▁decorative
▁penta
▁singularities
▁Roberto
▁reminiscent
▁Bold
KING
POL
▁sap
▁Neumann
▁Planck
▁listener
egi
▁oversight
▁Clock
▁surjective
▁incurred
▁Sgt
▁subfamily
gut
▁Midwest
Fire
▁fairness
▁inflict
▁Bangkok
▁ancestral
▁Prairie
▁SKU
▁Equity
▁Weekend
▁Alder
bah
reason
▁bribe
▁Stim
▁rearrangement
▁ample
digital
▁supreme
smtp
▁Deer
▁Spy
▁Shane
Detect
▁Bohemia
ologi
▁adjunct
▁ADHD
▁Admission
▁FGF
▁roughness
▁Reach
▁hectares
▁attributable
▁tailor
growing
migration
▁Rub
▁spontaneously
▁confronted
olitic
▁Thames
▁Sko
▁Concrete
▁doubling
▁lottery
▁mourn
▁Newspaper
▁Crusher
▁mucosal
▁stabilized
Len
olytic
enheim
layout
oughton
▁virulence
▁computationally
мен
validate
▁Carey
neo
played
▁XVI
▁Russ
▁disputed
▁Shopping
activate
▁Squad
▁Hillary
▁seated
▁seedlings
▁imagined
▁isomer
▁constellation
unique
▁Sense
▁duplication
phra
▁ammonia
▁Barber
▁lamb
▁Jacksonville
▁phosphorus
▁sandstone
▁cultivars
rhizo
akka
▁RPG
▁Historically
▁foremost
▁adjustable
osta
breaker
▁Swin
▁Barrier
afa
▁Kaiser
▁Detailed
▁Console
OUND
▁learner
India
▁Mama
kow
▁harassment
▁Sap
▁crank
▁sued
▁Feng
▁experimentation
vad
▁supplying
perfect
subsection
enham
▁motherboard
▁mural
▁prohibition
▁microbiome
▁positivity
▁Penguin
▁terrace
ATS
▁docking
framework
udin
▁Podcast
initialize
NING
▁Doyle
▁enum
▁outreach
▁Improved
Auto
CAC
▁publicity
▁Unique
Queen
▁Ferrari
}}$$
▁criticised
▁dashboard
▁droplet
▁Tate
▁AdS
violet
▁Colle
▁Sabha
footballer
lucid
were
arnish
logging
▁illustrator
▁recursion
gai
Characterization
▁nap
▁Knowing
▁insane
Delegat
Invitrogen
▁circulate
assembly
▁spokesman
▁EMI
swap
▁digging
▁subsequence
TEC
▁Nile
▁multitude
▁Lisbon
thesis
▁discoveries
cfg
cris
▁contaminant
rather
▁ERP
▁Closed
heating
▁Jah
▁garment
▁booting
zek
▁anomalous
▁dolphin
▁anthology
SUM
tetra
categor
THE
▁hamper
щ
▁trapping
Japanese
schema
▁Explanation
▁disabling
▁Sixth
▁PGA
benzene
olysis
lymphocyte
Package
▁Developing
Bob
atan
▁quantitatively
▁Bryant
woven
????
▁Crash
grown
▁mmHg
▁jewelry
▁Raiders
▁Copa
▁skiing
▁attracting
▁burnt
▁surrogate
▁Counties
▁interplay
▁relieved
rella
▁prevailing
Alex
phthal
▁Mitch
EVER
▁ODE
compact
▁travelers
mbox
▁Pipe
▁iterate
mixed
▁compose
▁magnification
▁digestive
sculpt
▁proclaimed
▁TeV
▁Vall
▁LHC
PLA
rino
▁distancing
defunct
▁Hammond
▁breathe
▁Hastings
Sqrt
▁calibr
▁Flex
artan
oxidant
▁Families
▁accelerating
▁systolic
▁Mao
▁Goes
guru
▁Karnataka
▁Prepare
▁instructional
▁rewritten
▁Alta
▁Buzz
▁Banking
▁unfamiliar
▁paternal
▁depict
pee
LAB
centering
▁trainee
▁subtropical
▁climatic
origin
▁Northwestern
glycemic
▁Specification
▁Carnegie
▁RBI
му
wah
ococcus
▁borrow
▁endorsement
"></
▁Janeiro
ом
▁Abel
}{|
▁transcribed
akura
interface
▁exposing
ewski
▁eccentric
mute
▁Friedman
gear
▁feminine
▁Pyr
Sep
Thomas
COVID
BIT
▁simplification
▁germination
▁Rwanda
▁Dawson
TIN
▁metabolite
▁Kau
▁oracle
▁Transformation
▁Documentary
▁massage
▁gestation
▁enjoyable
▁entirety
▁lumbar
Cube
▁Lange
PFS
▁cardinality
▁milling
▁distorted
▁Creator
Mail
compatibility
▁cocktail
▁Myers
▁Eleven
vcard
Ubuntu
Matt
lipsum
▁devised
▁SAM
▁comorbidities
▁Rhythm
▁Typical
▁Exit
Schema
▁stealing
▁Madonna
▁Consultant
ylo
▁phyto
perhaps
RIC
▁Availability
▁Beverly
consuming
▁Fernand
▁Borel
▁UCLA
▁downregulated
▁Leipzig
▁unbiased
▁Pablo
▁junk
▁encapsulate
▁minimization
▁dinosaur
▁RCW
Reference
▁Tribune
▁porosity
▁repeal
uze
technology
▁Carmel
▁Llan
gala
CNN
▁Comprehensive
▁amorphous
▁PART
▁Warrant
▁Europa
equilibrium
▁Madagascar
▁Grin
ague
▁contingent
▁Clip
▁antibacterial
▁sucrose
▁blunt
▁Kyoto
USB
▁blamed
▁celebrities
▁bilingual
▁Cream
CoA
▁glioma
Public
fab
tional
▁conjugation
▁elongated
▁outdated
▁cereal
▁saliva
▁LORD
AIDS
▁Pee
▁Miya
▁bullying
▁Jaw
spell
snap
issi
▁tyre
▁Slide
▁cautious
▁prolific
▁Bengali
igger
▁freestyle
▁abort
▁Brahma
▁slam
▁refusing
constant
▁Bates
▁haplotype
▁Laplace
▁internship
▁Advantage
▁puncture
▁poetic
▁aggregated
▁Perform
▁augment
🇺
▁hungry
▁Yun
ibble
▁pork
▁Boiler
▁sponge
="{!
▁Flora
▁Rally
circuit
▁THAT
SIL
▁councillor
▁mantle
▁minimally
▁exploratory
spoke
AMI
▁Bali
omino
▁undoubtedly
SYSTEM
▁Mapping
frontend
▁Partition
pani
▁Infection
ombo
Water
ulum
▁ballad
▁Rox
▁Fortune
▁Emirates
▁wheelchair
SID
▁hostage
▁deviate
orbit
▁analyzer
▁prolong
▁decompose
mostly
fei
▁confidential
broken
cancer
▁Brahm
▁emotionally
uddle
▁Governance
TAG
▁Laugh
▁universally
▁Hof
cadherin
vertebral
utu
▁investigator
LIB
▁slate
▁axle
▁fountain
▁salvage
schedule
catenin
▁crowned
▁stenosis
loft
eminent
ств
▁Lucky
ITION
▁Churches
▁Gloria
coat
Geo
OVA
president
▁prosperity
▁whoever
▁anisotropic
mbra
▁hemi
storey
req
▁descended
Camp
▁chronicle
▁Dolphin
▁Rodriguez
▁occupancy
▁CSR
▁bookmark
▁precedent
▁alternatively
buf
Eq
▁perennial
▁sporadic
▁lunar
Device
▁dotted
▁pretreatment
▁Mura
▁Emil
▁whisk
▁Osaka
▁Yong
Linnaeus
▁asylum
▁hepato
▁Tibet
▁worthwhile
FIT
cron
▁ascending
▁stepping
▁Senegal
▁affective
▁Lazar
▁Allison
▁expectancy
▁chemist
▁Midnight
Connect
Append
▁Diver
▁asymptotically
▁Pag
▁dissolve
▁Vera
Stack
Download
▁cyclone
initial
▁Mish
America
much
▁recycled
▁Auburn
Vector
▁Estonian
▁refractory
▁framing
optimal
SME
▁Cannot
graphical
Germany
▁Loo
▁skate
▁Promote
▁Mozart
▁Sutton
exchange
▁preposition
▁Calculate
AUTH
imetric
▁Restoration
▁astronomer
▁meanwhile
mesh
▁Philippe
▁ISSN
▁Died
▁thrombosis
▁environmentally
▁shutter
▁Kindle
Pay
parallel
▁arcade
▁sickness
▁Filip
osaur
▁MSE
▁splash
▁Hippo
▁della
ORT
▁Ethan
▁Vasil
▁phonon
ophyll
picture
▁advantageous
▁lamina
funded
tuning
▁Glory
ля
lepto
odic
▁optimistic
▁occupies
▁Named
▁Maa
▁Migration
▁replicated
▁Lep
▁Fir
▁fungus
ZZ
▁shy
▁artifact
▁Violence
▁Melissa
mati
▁Corte
▁caffeine
viral
tank
▁summarise
▁nightmare
▁weekday
subtitle
▁Amber
▁Dirichlet
British
▁Depot
heid
▁renovated
▁Molly
▁idiom
▁pickup
▁favourable
ethane
▁conformational
antha
▁Gauss
▁Chev
▁afterward
▁erroneous
▁Beam
Repository
▁parentheses
▁partnered
▁mediating
opod
hali
▁Flori
▁loot
▁mailing
▁conquered
▁kV
Benz
biological
▁Southampton
micron
▁Vampire
APS
Africa
▁padding
irri
Chinese
▁emulate
bacteria
property
▁mankind
▁alveolar
▁Exposure
▁Duty
▁Livingston
▁asserted
▁uprising
ORS
▁Musk
▁projectile
▁Dou
▁Toll
inho
▁restraint
▁compulsory
▁Couple
demand
wrote
▁Omar
▁happily
▁durability
▁Heavyweight
▁paved
▁Nowadays
viruses
▁Pak
▁confound
▁Reporter
▁Mickey
▁Christie
backup
▁Shoot
▁capitalism
▁restricting
▁acclaim
▁faulty
▁dull
GCC
▁Certainly
▁reopened
Connection
histochemistry
▁transfusion
▁Meat
▁bile
▁empirically
solvable
shock
periodic
▁Tesla
▁submitting
nothing
▁Overflow
DEV
▁repression
▁worries
▁lipoprotein
▁outliers
▁Ola
▁perturb
▁cosine
▁quietly
peroxidase
▁concluding
moral
occupied
ković
▁Loch
Temp
▁Seat
statement
▁Airways
▁Drosophila
▁asphalt
Under
eductive
▁rocky
▁Gerard
kinetic
▁Tube
▁exceptionally
▁suppressor
▁keratin
▁Kosovo
▁Growing
▁HIF
▁nausea
ит
▁binaries
▁Transformer
▁propeller
▁blogger
▁Gou
kick
arial
▁etiology
▁Jerome
▁HBO
▁turret
▁grating
distribution
TAC
glyph
▁Clyde
▁Cheap
Press
▁Kok
▁Cochrane
▁donate
EAS
▁freshman
tolerance
▁Tay
female
▁spanned
▁Manning
▁tolerated
▁Screening
▁Spike
▁commodity
▁customize
imeter
▁Shirley
Single
▁Determination
▁Jensen
ARA
▁vet
Nov
▁Swar
▁remake
▁conceal
▁quartet
▁collateral
Center
▁exploiting
▁hatred
▁academia
▁Surgeon
▁pragmatic
uddin
▁Computational
▁Augustus
▁vineyard
сти
Plat
▁respondent
Column
Wang
PCC
▁propensity
▁motility
▁minimized
▁messaging
Israel
grub
▁Forty
▁Lithuanian
▁Expect
patriot
▁pollutants
iosis
▁nicknamed
........
▁fulfil
▁Subsequent
ный
Nicol
▁Reverend
▁Xavier
▁Landmark
▁Disability
ǫ
▁Castell
efer
never
▁superconducting
▁Intermediate
▁Treasure
▁gifted
olite
yria
▁reconnaissance
▁Tad
resistance
▁vivid
frequent
zak
MOD
▁Composer
▁compost
▁sheath
▁Pingback
ischen
ński
▁proactive
▁Ulster
reflect
▁Witness
lactic
▁Jaya
▁MOSFET
mega
▁disappointing
QUA
▁chemokine
kirk
▁upside
▁Abbas
None
▁Concerning
walker
▁Polo
Author
▁Barton
▁compassion
▁Emmanuel
▁Submitted
argo
oxo
HTML
▁Skip
▁concurrently
▁negotiated
shared
ISM
▁Vince
▁subway
▁Gaz
multiple
▁ozone
▁vibrant
▁warmer
morrh
▁Demand
▁credible
▁Porto
▁Tee
▁interpersonal
▁qualitatively
▁Vital
would
formation
▁Saf
▁manipulated
menopausal
▁pasture
▁BUT
▁Construct
AIC
Indian
ebel
▁Married
liquid
▁introductory
primary
handler
▁Ortho
▁reclaim
▁Thom
fern
▁soften
Phil
raven
▁crane
TEST
Cookie
▁inertial
▁hymn
FLAG
ubbing
▁understandable
▁enrich
▁Chlor
arva
▁remarked
▁Geoff
▁Ethiopian
▁shaking
ethanol
▁Ibrahim
▁mindset
▁Harvest
▁Neck
▁Keeping
▁UDP
▁confounding
▁Electron
▁Hassan
fluid
▁compressor
▁Cafe
▁Wrong
Location
Hello
▁synth
CLU
▁Springer
▁Composite
external
▁peroxide
▁pants
▁gestational
▁seam
▁Sheikh
▁halfway
▁procurement
▁plaster
▁HERE
pgfplots
▁Duchess
▁hesitate
▁accountable
▁withstand
wand
▁superiority
▁Darling
▁launcher
▁Wheeler
▁economical
▁Glacier
zyme
itating
▁Divide
jö
▁dug
ripping
▁amend
▁Josef
▁Sunny
itta
▁Darren
▁interleukin
▁Injury
▁jQuery
▁Atomic
Die
Anim
Custom
▁Swing
▁readiness
gaard
Word
▁Coastal
▁Lebanese
▁univariate
monitor
▁foreground
▁heap
inkle
iasis
▁photographic
▁Bess
RING
▁Appearance
▁Coordinator
▁perceptual
▁infinitesimal
▁stringent
▁perfection
▁Bark
▁superb
Player
▁garlic
▁reload
▁Bangalore
▁curtain
▁narrowly
synaptic
▁clicked
▁quadrant
▁colorful
▁Warwick
▁ethno
Match
▁blink
▁coconut
▁livelihood
▁analytically
▁Hamm
Care
▁unwilling
ân
па
▁Compute
▁Prussia
▁dissipate
▁pseudonym
▁spectroscopic
▁grazing
▁emitter
▁Hermann
oplasty
ifera
ем
▁blowing
▁escaping
▁practise
theorem
appear
▁Sharing
año
▁nicht
better
homogeneous
George
▁Turtle
▁Anchor
dimethyl
deploy
could
▁disposition
▁Walton
islav
▁PWM
▁MacBook
hearted
▁Alumni
▁tolerate
container
ouncing
▁minima
classified
please
▁exhaustive
▁persuade
▁taxation
▁Kub
▁morality
▁titanium
▁textual
▁instrumentation
▁galleries
С
pharma
▁horizontally
▁disseminate
▁wilderness
nucleotide
clo
▁trilogy
▁Retirement
isson
▁Rim
anka
▁summon
▁Vaccine
▁dendritic
continent
▁seldom
variance
▁Chef
cyclo
▁Companion
▁MATLAB
▁Sten
▁installment
▁Gone
pedia
zawa
▁parsing
Simon
▁distraction
▁Trick
▁LEA
▁equivalently
▁dissect
▁Samar
▁airborne
▁checklist
▁Bergen
▁manifested
Hey
▁Cooperation
________________
repair
Minute
▁marital
▁nitric
▁Alpine
▁Crane
▁Avengers
▁Essentially
medium
consistent
commit
▁crowded
VEN
▁Advocate
▁Platinum
▁Navigation
cano
>>>>
adam
▁vomiting
CLA
▁regex
▁forthcoming
▁Lieb
riti
▁porch
segment
▁splice
Jones
▁Constantinople
▁triglyceride
▁Eleanor
young
ugi
biology
CAA
IRT
▁Angola
▁parasitic
recorded
▁rasp
▁Powder
▁astronaut
▁committing
icidal
▁inoculated
▁gastropod
▁fundraising
▁Yao
▁Fleming
Carl
▁deduced
▁mum
▁vulnerabilities
▁booster
▁contradictory
umbo
teacher
AAC
▁Slovak
▁Hanna
▁Inventory
▁specializing
strand
▁probiotic
▁apprentice
ERI
▁Funk
▁corticosteroid
▁Meso
Office
Low
▁creatinine
salesforce
▁furthermore
Include
▁Seventh
▁Carpenter
▁accelerator
Publish
▁Colombian
▁microcontroller
EMENT
▁warp
▁thru
▁disturbing
▁blended
▁mutated
▁Mongol
vous
▁breastfeeding
▁jungle
CAN
Authentication
smooth
▁Kip
▁descendant
invest
kö
Texture
death
▁COR
aceous
▁pinch
Braille
▁glycerol
▁algae
▁Implement
▁Yuri
▁DIY
▁Idea
▁Natalie
▁Afro
▁parabolic
Wall
ORE
glacial
▁septic
ULL
▁Dag
triangle
▁Reservoir
▁condensate
▁yacht
▁wavelet
▁cisplatin
▁Promise
▁ascend
▁cruel
lä
throp
▁Scarlet
bahn
Helper
carboxy
▁Enforcement
▁amplify
▁fauna
Bla
ACP
▁René
Hot
determined
▁Ravi
▁Stephanie
▁sermon
▁Directed
important
▁Sandra
Segment
▁gluon
hale
Team
▁portrayal
Chief
▁Aviv
▁Featured
▁genuinely
▁obliged
▁Randall
▁opto
mare
▁communal
Found
Infinity
▁Jab
▁CKD
▁inaugurated
▁Empress
▁proposing
living
▁Particle
surrection
▁Kana
International
▁initiating
▁subtraction
lose
▁stratification
▁Saul
▁Xeno
▁violating
MIS
▁fulfilling
▁Older
▁intricate
▁refrain
▁Pulse
until
▁coined
▁Brooke
▁repositories
▁WILL
▁profitability
▁unpredictable
▁sanitation
▁MWE
arum
plasma
surgical
Position
represented
▁surrendered
▁quarterly
▁crying
▁Galli
approximately
▁adapting
▁Leopold
▁ultraviolet
occo
▁interruption
▁Systematic
thinking
▁tRNA
▁Banach
▁submerged
▁superposition
▁translating
yō
ffmpeg
▁speculated
▁Remain
exposed
▁substituting
▁surfactant
▁Spectrum
▁CSI
▁camping
ulata
▁Removal
▁Cologne
Scott
▁elasticity
▁Journalism
typically
▁villagers
▁plotting
▁synapse
▁Basel
▁homeland
jima
▁Arabian
▁homosexual
Grid
WORD
▁Clarence
▁Bombay
thaw
omorphism
iye
oyle
ifolia
their
▁stretches
▁redeem
▁Compact
▁silencing
ICK
IME
▁Greenland
▁initialization
▁Vega
▁rinse
▁prefect
▁García
▁polysaccharide
▁dread
Adam
Active
▁Acquisition
▁bpy
Print
▁Mercy
carrier
▁Uttar
(+)
MET
▁Feder
avour
▁feud
▁cathode
Param
Handle
▁suffice
otte
ILE
regulate
ensen
zaki
▁Voltage
zine
Joe
Hard
▁delighted
▁abused
elson
▁Sicily
▁Hatch
REF
▁Schneider
tagged
▁Weiss
▁Seymour
bench
▁explode
▁skating
Pixel
chenko
▁Cartoon
▁synthesizer
▁motto
▁Bhag
▁statewide
Radio
▁Gaelic
▁Gazette
▁Preview
poll
▁geometries
▁Reno
Font
▁Lig
ggling
vendor
▁combo
▁muon
▁attribution
▁listened
▁interfering
▁Paraguay
▁Elena
▁conferred
▁Plug
grep
Lipschitz
PBS
Integr
Amb
little
▁transmitting
▁Tran
▁Kry
▁Sanskrit
▁Muscle
▁Chand
pathetic
▁campuses
trigger
▁Recorded
▁Diagnosis
▁Vig
threatening
ATIONS
phus
traditional
▁Affect
▁idiot
▁underscore
Share
Spanish
▁Confederation
▁appealed
▁Gregor
zil
▁downside
▁equip
▁Prussian
Steve
▁Rita
▁unsafe
▁Poker
▁neutrophil
scaling
▁Sven
▁Tie
▁cloning
▁conductive
▁Classes
▁curator
▁Lagos
▁Flint
▁Magnus
▁insulator
iola
dhcp
▁propagator
setlength
▁Recipe
▁Genomic
Opt
▁beautifully
▁assemblies
▁subgraph
▁sitcom
buffered
substr
engineering
▁shunt
▁Steele
▁crab
▁rewarded
▁projector
▁Romeo
▁Tram
filename
▁mechanic
▁stacked
▁ditch
▁absorbing
▁arbitration
▁disappointment
LOCK
▁feeder
▁Pleasant
▁brute
▁Pike
▁Questionnaire
▁Salon
▁verdict
VALUE
▁sancti
Build
▁Magnet
alsa
▁$|\
▁Olivia
▁cleric
▁Viola
▁Nielsen
Japan
▁Kamp
▁Immediately
▁nicotine
▁Slot
▁deepen
▁Stud
Special
Additional
▁Patriarch
▁Curve
}\,\
relax
▁granting
▁scrutiny
garh
▁hourly
▁legislator
couple
builder
▁Oval
▁Determine
▁persuaded
▁Engel
anol
mbri
▁temperate
Kit
▁Arbor
▁syndicate
ridden
▁Flyer
voting
▁Catalan
▁embarked
joy
▁Serb
▁Diversity
CMP
▁Koz
utan
▁Breath
▁waterfall
CTA
▁cru
▁compiling
includegraphics
▁undertook
ся
▁Bcl
▁Household
▁Cult
controller
hammer
▁Opposition
Establishment
▁Torre
▁theorist
opol
▁sue
▁Turing
▁React
▁Passenger
▁Maggie
▁Logo
▁selector
▁ribosome
▁interconnected
▁CTC
▁gelatin
▁Tina
▁VIP
▁Martinez
▁Lebesgue
▁PPAR
Body
▁blotting
▁Representation
▁solicit
▁Telephone
▁Nigel
▁DFT
▁cortisol
▁poultry
▁anaerobic
▁coagulation
inspired
onium
▁refractive
MAL
ROC
audio
demo
▁encouragement
▁Inclusion
cule
▁unusually
▁workstation
covered
▁MHC
▁Perkins
▁Rican
▁immersed
▁hijack
▁utterance
clonal
phospholipid
▁foresee
▁Valle
▁irreversible
▁Newark
▁Lifetime
▁repel
▁Alert
▁sclerosis
▁Directive
▁comeback
▁Sikh
▁warranted
▁theologian
▁Concern
asque
▁Andhra
▁Fabric
ать
Rule
▁Baden
▁Gibraltar
munofluorescence
▁Quran
▁Affi
▁Eph
▁Teresa
▁tractor
▁Ibn
▁speeches
▁Dept
▁sanctuary
▁Ecology
Ticket
▁corneal
▁veterinary
▁Rau
▁preschool
rvert
▁transmembrane
▁unexpectedly
ICI
witz
▁disgust
▁waveguide
▁sticking
▁Solving
Thu
▁Coaching
▁Nim
▁stressful
eaux
▁frustrating
▁worms
▁Suzuki
athlon
robin
▁Councillor
surgery
▁corpse
▁Cumberland
▁demolition
opoulos
delay
▁Crowd
▁Driving
▁XII
Wiki
▁Eurasia
▁lactate
▁punt
▁GitHub
▁magnificent
▁resembling
▁longevity
Most
▁Ferri
Natal
mesenchymal
▁autobiography
▁unbounded
▁sunset
IAA
Response
▁Wimbledon
▁Dudley
▁medalist
▁Gould
Plus
▁Stirling
▁FPGA
▁parser
▁Miracle
student
▁PTSD
meyer
▁Coventry
Subscript
▁SIG
iggle
▁colonel
▁Moto
▁Fate
developer
▁culturally
spectral
Chen
▁vacancy
▁columnist
chuk
▁caveat
▁suggestive
▁bowling
▁Claus
ischer
▁CDT
travel
▁cafe
▁Herzegovina
▁Jakarta
divide
prefix
▁Conway
Four
ström
thumbnail
blastoma
▁Kiev
Lead
▁Symposium
▁Fifty
▁Improve
▁presume
▁Toxic
particularly
▁prima
▁Eurovision
Theorem
▁Zion
LAND
▁commuter
э
▁Omaha
▁Hawke
prove
▁Quite
Everybody
▁Contra
Demo
▁malignancies
▁Qualification
ICH
▁Cisco
▁Bride
cheng
▁Buch
rini
▁normality
▁Alexa
▁Fitness
▁Wah
▁Rouge
▁counselor
▁novice
ISBN
▁Investor
lipid
```
▁Giuseppe
▁restarted
▁techno
▁Clause
gressive
▁motives
▁misuse
▁rotary
▁covenant
▁consortium
▁Regina
hidden
consistency
▁Humphrey
▁clarinet
▁comprehend
▁entangled
▁curb
▁Evangelical
ró
▁wanna
▁AGN
UTR
▁graphite
▁compensated
▁reunion
▁Lift
scatter
▁Nikon
▁Valentin
SIZE
exact
▁bizarre
OST
GHz
iaceae
▁COX
closing
▁bamboo
▁Fay
▁inoculation
▁retailer
ohan
fiber
▁Millennium
▁McCu
▁elemental
▁Worldwide
▁necessitate
▁Activation
▁Capture
Amount
▁suicidal
▁Regent
****************
repeat
▁compressive
Enabled
▁proficiency
▁Apostle
▁Williamson
▁Erin
uddy
those
▁overthrow
▁Apex
▁topography
▁Autonomous
▁SUV
entrepreneurship
▁Mitt
▁unpleasant
▁rebuilding
▁occupying
▁Riverside
▁SLE
singular
Directory
▁Majesty
▁condensed
amina
eyer
Chrom
▁hallmark
▁interferon
Click
▁complaining
▁Blast
STAT
▁causality
nail
▁efficiencies
▁advertised
punk
charged
garten
▁Judith
▁chromosomal
practice
▁bonded
knowledge
▁Galois
▁Philipp
▁serine
▁knowledgeable
▁stabilizer
▁Riemannian
cratic
canonical
pene
▁Keller
articulate
▁bait
Aleks
▁Stroke
▁Pharmacy
▁Jury
▁interstitial
▁Philharmonic
▁DDR
▁Signature
lı
▁sacrificed
policy
▁Inspired
▁Cooperative
▁nucleation
▁usability
▁Weyl
▁Silent
▁Ricky
▁eosinophil
▁Toledo
▁Been
▁Conversation
▁Sporting
lifting
kova
▁Fasci
▁Pale
▁landowner
▁myeloid
▁Himalaya
▁EDTA
▁Knox
▁Randolph
▁Mohamed
▁automate
ogy
▁hereditary
▁unhappy
▁proponent
▁inverter
Hom
ITA
▁unambiguous
▁Supplier
▁ammonium
anchor
по
ember
▁QTL
historic
▁Produced
▁antidepressant
▁resemblance
▁Chick
dore
▁hormonal
▁cAMP
▁enhancer
▁catastrophic
▁splicing
▁temper
▁poured
▁Expansion
▁Limitations
▁Reconstruction
▁Parameters
▁Badge
rzy
▁Waterloo
▁Worcester
▁primate
phonic
squared
▁Agnes
▁standpoint
Move
▁transitional
Marie
▁Assess
▁Vertical
▁torch
▁variational
▁Exactly
joint
▁Tape
idase
▁Wolfgang
Phys
▁photographed
latter
▁EMT
▁deriving
▁sequentially
▁CSV
▁dpkg
▁Rehabilitation
▁Carmen
▁dismissal
▁Kou
▁fortification
osaurus
Saint
▁landslide
interpret
zha
urian
umming
▁Rudolf
▁quarry
receive
PASS
▁Benson
▁martyr
Stop
Close
____
▁Utility
▁hospitality
genomic
▁playground
▁Auction
▁surgeries
▁Timber
rä
▁sworn
▁unpublished
▁Barker
▁Abuse
▁pertinent
batch
──
▁Medieval
▁microtubule
▁Fool
ше
▁Validation
▁Established
▁biopsies
▁judging
glomer
▁fractal
▁sandy
]]]
▁novo
▁Holder
▁mound
▁ambulance
ctrl
enhanced
▁toggle
▁Kathleen
▁kindergarten
▁undesirable
edited
▁Athlete
▁Stuttgart
AMS
Qual
▁Lever
DEBUG
▁pharmacokinetic
Boy
<>
▁Panda
▁Compton
▁tunneling
▁recharge
▁Pension
▁carotid
▁superhero
huang
▁funnel
▁dichotom
▁turkey
▁Mosque
▁DMSO
▁Gli
Come
▁caching
today
Adapter
ciency
▁UEFI
▁Bayes
protect
▁nephro
▁Somali
▁lumen
Pipeline
▁Fishing
▁Norwich
Arc
▁Cunningham
brush
▁Straight
▁commend
▁confession
▁thicker
▁Biotechnology
syslog
▁Seminar
scribing
▁kidnapped
vdots
▁concede
spirit
▁confluence
▁flask
hyphen
igator
▁Isaiah
▁misunderstood
▁ethernet
▁Samoa
▁overlooking
▁missionaries
Original
▁Hearing
KER
Cast
hspace
money
▁discrepancies
WIN
▁Erie
PCA
▁pastoral
▁mosquito
Angel
cube
▁Psychological
▁nationality
▁chronological
Meier
compress
▁fertile
▁Rang
▁correctness
▁undergoes
▁Fault
▁ACM
ussi
▁thigh
▁polished
▁achievable
▁glycoprotein
▁prominently
▁dosing
▁Kö
angel
RIGHT
▁tracer
▁spokesperson
▁Malawi
▁meaningless
DIC
▁bonuses
▁Fritz
▁embodiment
▁Calculation
▁Dickinson
▁MORE
anthropo
▁Tradition
consider
▁Uniform
blank
▁exerted
▁emigrated
▁patriarch
▁impart
crack
▁squat
▁synchronized
▁scent
▁SER
▁Triangle
▁Jonas
▁Grie
▁Fitzgerald
▁deficiencies
▁Wig
▁authenticity
OOP
stuff
Install
▁consulted
▁Radical
▁thankful
knit
▁Bere
▁Baghdad
▁soliton
▁polling
reductase
▁Moran
Lock
lapping
▁astronomy
▁spectrophotomet
)!}
▁Berk
Louis
Release
▁Nicaragua
▁ensuing
▁Smile
▁Lyc
▁unemployed
▁nucleic
▁viola
▁Dimensions
▁glimpse
▁periphery
igno
▁localities
▁coastline
▁tease
▁subsidies
▁Garrett
▁anchored
▁Broncos
▁skirt
▁Angelo
▁stool
LAC
▁dimensionless
▁Piper
olone
▁lumber
▁Maintain
Ψ
▁Stereo
▁covariant
LaTeX
▁rhyme
▁Sketch
▁Childhood
▁corpora
Park
Coordinate
hiz
GROUP
▁confocal
▁predefined
angling
▁villa
ATPase
▁Deli
▁cytochrome
Saharan
▁Dataset
▁edible
▁CFU
▁Sustainability
▁unacceptable
▁Implications
▁workspace
▁DSM
▁cataract
▁unreliable
▁Awareness
▁liquidity
Way
instead
▁Trauma
▁belly
▁Seller
▁resonator
Getty
Richard
paced
▁Tribunal
▁announcing
▁massless
intensity
▁abolition
▁atheist
▁expressive
IONS
▁lighthouse
conspicuous
▁immature
▁scalp
millimeter
▁preclinical
>();
▁follicle
▁liquor
▁peanut
thorax
▁galactic
Receive
▁pillars
▁archaeologist
▁psychosocial
▁flooded
▁wicked
▁elective
▁Kawa
▁Chung
▁Koo
▁venom
▁cheating
▁Therapeutic
▁subdivided
▁purge
expressing
secondary
▁RAW
clone
emme
menstrual
SYS
liche
whether
xxxx
▁clump
▁Frog
▁Including
▁anticancer
disproportionate
▁provisional
OTU
▁Elvis
▁Jain
▁prosecute
▁Zak
ophyte
▁Bermuda
▁Medi
vé
Metadata
alloc
▁Pascal
nomen
▁mollusk
▁microbes
▁salaries
▁Juliet
▁Anand
▁Hartford
▁dilation
▁Bronx
▁prenatal
▁tangible
▁как
binary
▁Monastery
▁excision
▁sketches
▁pushes
▁condo
▁Radiation
▁novelty
▁synthesize
▁Includes
▁Eugen
▁ArcGIS
▁minimise
▁Sunshine
▁identically
▁Tactical
▁stride
▁Exeter
▁scary
rø
identified
ryan
uggle
▁Rent
▁specialization
Apple
▁wingspan
▁Miranda
ugger
checked
▁Registered
▁petrol
▁Assignment
▁oblique
▁conscience
▁capped
upgrade
ponent
▁PARP
▁DEC
▁flawed
▁polypeptide
according
▁grandchildren
vocal
▁Disaster
anche
▁postponed
▁Lemon
▁Revelation
programming
▁Fail
▁Lob
UTE
▁differentiating
▁transcend
TCA
▁Apartment
▁Drill
▁Silk
ovirus
▁invoked
arque
▁Telugu
▁solidarity
melt
WAY
▁Socio
dominated
▁Sinclair
▁incarnation
▁Abdullah
▁Khu
▁privat
House
▁Berger
▁rainbow
▁immunological
▁Bernie
TEMP
▁MCF
galact
producer
▁Preservation
▁Rajasthan
▁periodontal
OTA
lichen
▁Liam
▁Breaking
▁demise
▁endocrine
▁enjoyment
▁sexes
ALA
▁pageant
▁ambush
▁Medicaid
▁leptin
graduate
river
▁Surf
amsmath
EEN
▁Orbit
▁Alison
▁utterly
▁Whale
▁Pratt
▁preclude
GRA
Short
▁Brownian
plasia
NCB
▁Vim
etsu
▁Bahrain
▁Hasan
Aug
▁Payne
HIS
▁checkbox
▁viscous
approved
club
▁beforehand
HIP
▁Willow
andro
▁Cobb
▁shrimp
▁Dungeon
▁Nev
Track
▁dissent
▁Mash
▁corroborate
▁pregnancies
▁reunited
Bay
▁borrowing
▁masked
▁normalize
▁Eritrea
▁revoke
▁coupon
manual
▁ZnO
▁authoritative
membran
coord
▁postgraduate
robot
▁merchandise
▁rhythmic
Philip
sperm
▁Extraction
pull
▁deflection
▁ruined
anthra
▁surpass
ATED
APA
TNF
▁atherosclerosis
▁persecution
▁remedies
▁simulating
smoke
▁rented
Display
ancies
iensis
thrombin
▁excursion
▁Packers
START
▁psychiatrist
▁Duc
aş
▁trough
volut
ים
▁Treasurer
▁conduit
▁voluntarily
▁Zurich
▁CPA
▁Kwa
▁Bose
ugging
blaze
▁REAL
evsky
▁Cao
▁Lorenzo
SPECT
▁Buddy
▁erect
▁wavefunction
▁characterizing
sulfo
~~~
Western
▁unequal
Series
▁canoe
onset
uwa
Lib
▁Kolkata
▁Shooting
▁Ambi
▁cirrhosis
▁Quin
▁Fog
ār
▁elliptical
▁parody
▁realities
democrat
ordinate
ugged
▁Essen
▁hardship
ту
Output
▁GOP
parietal
▁attendees
▁oneself
▁charming
▁gadget
▁Fiber
▁forgiveness
▁laughing
▁salad
▁restructuring
▁ventricle
▁Kah
▁possessing
▁implanted
▁Kinder
▁Mutation
minimum
▁reacted
▁succeeding
▁oxidase
▁Megan
WHO
elect
▁electorate
▁Sabbath
▁Cyclo
▁Zee
Olympus
▁detained
▁allergy
opathic
amil
billed
▁malt
▁Emerging
▁Yesterday
▁Tek
iction
▁Bihar
▁MCU
osus
▁sheaf
▁triplicate
▁Hui
JK
▁discriminator
▁Novo
▁Tickets
▁Continuing
▁Ricardo
▁Monaco
▁POP
▁Pharmaco
prog
Turn
▁progresses
▁Himself
always
▁glutathione
▁tedious
convex
▁Nau
HOT
▁Survivor
Temporary
ется
▁endowed
ivable
bundle
▁humorous
▁Awesome
▁dimensionality
▁garnered
▁Namibia
▁sweeping
▁Vest
▁Thin
▁Zheng
▁gratitude
configurable
▁qualifier
categories
kata
▁Curriculum
▁Advice
▁payable
▁Proper
▁bleach
▁Binary
partition
Customer
▁Sonata
▁Somalia
▁Simmons
▁Electricity
Reilly
▁Plateau
▁stove
corrected
▁Delay
▁Funny
▁biologist
▁pane
▁immunotherapy
eño
▁dire
uver
▁impurities
▁densely
operator
▁Normandy
▁volts
▁Assam
Three
▁Deck
▁PLC
Jean
▁Bollywood
▁discriminant
▁scalable
▁Augustine
▁equate
▁Denote
▁Edith
Score
▁masculine
STRONG
▁immunoglobulin
▁Ricci
odia
nutrient
▁Chun
▁downregulation
▁contention
▁niece
▁Olivier
▁librarian
▁Goodman
helper
▁Chandler
▁Mustang
▁;;
zong
▁squirrel
▁suitability
▁maximizing
Debug
▁Libraries
▁Zagreb
▁composing
▁sociology
▁sadly
▁Chocolate
▁synagogue
▁bodily
▁overwhelmed
▁Skill
▁corresponded
▁greedy
▁Possibly
▁Nissan
finger
▁BMD
▁Sadly
▁Goddess
▁Behavioral
Wallis
illiard
escens
▁seminal
▁Werner
▁scare
▁Freud
▁sinking
▁Alps
▁Residence
ال
broad
▁cram
▁deploying
▁biologically
▁Blum
▁Traditionally
▁pylori
▁Cycling
▁infringement
▁Bacon
Session
▁cherry
▁Hazard
ritt
▁circumvent
▁Interpretation
▁Sib
▁squamous
▁aerodynamic
▁nationalism
▁Deva
▁palliative
offset
▁wafer
ovski
▁referencing
▁Derbyshire
ullah
Matrix
relevant
▁Namely
▁Separate
▁playback
Eigen
▁spotlight
▁waiver
▁Kirby
▁bureau
▁Annex
Scale
▁anthem
▁Particularly
▁dub
enol
▁Ramon
▁Putting
▁Stevenson
▁Arlington
▁adverb
▁Punch
▁Deliver
▁Holm
▁persisted
▁pancreas
PHY
▁stirring
▁Elaine
▁sophomore
ussa
▁foci
arctan
Young
▁Advertising
▁gorgeous
▁Generate
▁marched
▁Roller
▁drastic
▁preterm
Zhang
▁pronounce
reperfusion
▁Dancing
▁Duchy
▁customary
▁placenta
▁aorta
▁Taipei
▁Isabella
pong
Crypt
▁Montenegro
▁Farr
Enum
▁Deborah
FFFFFF
▁Illustrated
▁Lionel
▁Zoe
brother
▁summed
äl
▁López
▁shove
▁FAA
▁Hancock
▁potency
diction
▁maiden
▁troll
▁Spread
▁evacuated
▁classifying
▁spinor
▁empowerment
▁proinflammatory
optera
CLE
ARR
strut
им
geom
▁resilient
▁intrigue
MRT
ал
▁pawn
ACA
▁tentative
▁subdomain
molar
bourg
ку
▁divers
colo
▁Māori
▁competencies
▁luciferase
fjord
▁suppressing
PET
▁Porsche
▁fading
▁Mesh
▁inversely
▁rsync
individual
▁Winchester
Serial
▁counteract
Oct
▁stole
DIRECT
▁plasmon
▁pottery
▁xsi
▁Operational
▁#!/
▁dispense
▁roam
▁Efficiency
▁MATERIAL
▁ordinance
▁Sylvia
▁annihilation
▁Baroque
▁nobility
ã
▁так
textrm
▁Analyses
▁SAN
omba
À
▁Townsend
Amendment
▁Mohan
▁Schwe
▁crisp
▁responsiveness
hump
▁Klo
Member
▁censorship
▁Sunset
▁BMP
▁Middlesex
▁testified
▁retrospectively
▁Levy
▁González
▁Messenger
▁Elliot
vista
▁watts
▁uranium
▁nucleon
satellite
▁relegation
▁Salmonella
▁attendant
▁stray
▁protector
▁camel
▁Brasil
daily
▁Compliance
▁Covenant
▁intrusion
▁Pocket
GMP
▁embark
storage
▁Georgetown
▁Gavin
▁Bhu
backslash
▁Smooth
▁Moy
rational
▁Beethoven
▁booth
▁activism
gdal
▁climbed
Channel
ndez
▁Pune
▁Evangel
▁Docker
▁antique
▁Czechoslovakia
LIMIT
unknown
nikov
▁MacDonald
▁Esther
ANOVA
REP
▁prostitute
jou
OBE
▁leased
winner
▁Mandarin
kali
ennie
strike
▁ORF
ATG
▁raft
ulli
▁Hercules
▁analysing
▁Highlights
▁RHS
▁Yugoslav
OVE
▁arcpy
▁deprived
▁unlawful
▁ERR
▁stromal
[...]
